<pad>	0
<unk>	0
<s>	0
</s>	0
▁t	-0
in	-1
▁a	-2
he	-3
re	-4
on	-5
▁the	-6
er	-7
at	-8
en	-9
▁s	-10
▁c	-11
▁o	-12
it	-13
an	-14
es	-15
is	-16
▁w	-17
al	-18
▁p	-19
or	-20
▁b	-21
▁in	-22
ed	-23
▁f	-24
nd	-25
ing	-26
▁to	-27
ic	-28
ar	-29
▁of	-30
▁m	-31
ion	-32
ro	-33
▁d	-34
▁and	-35
ou	-36
▁th	-37
ent	-38
le	-39
▁e	-40
st	-41
▁h	-42
▁re	-43
om	-44
▁n	-45
il	-46
as	-47
ly	-48
ve	-49
▁l	-50
▁be	-51
ct	-52
▁g	-53
ut	-54
▁is	-55
▁T	-56
ol	-57
▁that	-58
ation	-59
im	-60
ce	-61
▁I	-62
se	-63
ra	-64
ot	-65
▁de	-66
ver	-67
▁A	-68
ur	-69
id	-70
▁for	-71
ment	-72
ld	-73
ig	-74
ow	-75
▁it	-76
▁on	-77
et	-78
▁st	-79
ies	-80
ad	-81
▁u	-82
ch	-83
nt	-84
▁pro	-85
ir	-86
▁con	-87
ul	-88
ill	-89
ate	-90
▁C	-91
▁S	-92
▁B	-93
▁as	-94
▁The	-95
▁–	-96
ore	-97
ers	-98
ith	-99
▁wh	-100
est	-101
▁E	-102
pe	-103
ity	-104
▁al	-105
▁r	-106
▁su	-107
her	-108
▁cou	-109
ist	-110
▁with	-111
ge	-112
ay	-113
▁ex	-114
ort	-115
▁are	-116
lo	-117
▁an	-118
ess	-119
us	-120
▁ne	-121
ab	-122
am	-123
ial	-124
con	-125
ive	-126
▁U	-127
res	-128
ain	-129
▁not	-130
ter	-131
▁ha	-132
if	-133
▁we	-134
th	-135
iv	-136
ke	-137
▁com	-138
▁M	-139
▁by	-140
em	-141
▁has	-142
▁have	-143
ould	-144
▁P	-145
▁se	-146
pp	-147
ac	-148
▁W	-149
conom	-150
▁le	-151
and	-152
▁pol	-153
▁sh	-154
qu	-155
oc	-156
▁will	-157
▁v	-158
▁wor	-159
igh	-160
▁count	-161
▁econom	-162
over	-163
ust	-164
rom	-165
▁G	-166
um	-167
ia	-168
ap	-169
▁en	-170
▁F	-171
ical	-172
op	-173
▁or	-174
ant	-175
ost	-176
▁at	-177
os	-178
▁countr	-179
▁from	-180
uro	-181
▁im	-182
ions	-183
▁he	-184
od	-185
art	-186
iz	-187
▁its	-188
▁their	-189
▁“	-190
▁more	-191
▁Ch	-192
▁y	-193
ast	-194
ome	-195
▁ch	-196
ong	-197
el	-198
ure	-199
ib	-200
un	-201
▁R	-202
ans	-203
▁inc	-204
▁int	-205
▁N	-206
ther	-207
▁un	-208
ak	-209
▁res	-210
ff	-211
▁2	-212
red	-213
▁But	-214
▁was	-215
▁imp	-216
ich	-217
▁would	-218
▁In	-219
mer	-220
▁Euro	-221
end	-222
ect	-223
ru	-224
ary	-225
gh	-226
overn	-227
▁Chin	-228
pt	-229
▁Europe	-230
▁ab	-231
▁can	-232
ear	-233
all	-234
▁this	-235
ight	-236
▁ag	-237
ance	-238
row	-239
▁ad	-240
anc	-241
▁1	-242
▁US	-243
▁they	-244
ous	-245
▁govern	-246
ud	-247
▁O	-248
▁cont	-249
▁than	-250
▁all	-251
out	-252
▁which	-253
ational	-254
du	-255
ip	-256
able	-257
rou	-258
ard	-259
▁countries	-260
cc	-261
ates	-262
▁20	-263
ations	-264
▁Th	-265
▁D	-266
▁comp	-267
ign	-268
ated	-269
▁fin	-270
ere	-271
▁pr	-272
▁government	-273
▁H	-274
▁whe	-275
ie	-276
ult	-277
▁(	-278
ark	-279
▁world	-280
▁China	-281
any	-282
lic	-283
▁fa	-284
▁but	-285
▁rec	-286
ide	-287
ks	-288
▁j	-289
▁year	-290
▁do	-291
ress	-292
ike	-293
▁polit	-294
▁exp	-295
ven	-296
ree	-297
▁part	-298
bal	-299
orm	-300
▁dis	-301
ence	-302
one	-303
▁grow	-304
▁tr	-305
reat	-306
▁reg	-307
ag	-308
▁economic	-309
▁polic	-310
▁J	-311
ime	-312
▁L	-313
ub	-314
ian	-315
▁bec	-316
▁been	-317
▁other	-318
▁so	-319
▁pe	-320
▁out	-321
lobal	-322
▁pl	-323
ep	-324
▁K	-325
▁new	-326
ine	-327
ction	-328
▁inv	-329
age	-330
og	-331
▁dec	-332
ors	-333
▁cr	-334
ile	-335
erm	-336
ll	-337
▁who	-338
▁over	-339
▁me	-340
▁one	-341
▁global	-342
▁inter	-343
▁dem	-344
▁Un	-345
ally	-346
meric	-347
▁As	-348
are	-349
ens	-350
▁lead	-351
ition	-352
so	-353
ower	-354
arket	-355
rad	-356
form	-357
▁und	-358
▁Americ	-359
ern	-360
▁only	-361
lop	-362
▁should	-363
ue	-364
velop	-365
▁ind	-366
▁political	-367
ack	-368
▁also	-369
ident	-370
▁eff	-371
▁need	-372
ren	-373
au	-374
ake	-375
▁his	-376
▁ris	-377
▁growth	-378
▁like	-379
ility	-380
cy	-381
ose	-382
our	-383
reas	-384
ire	-385
▁pre	-386
ities	-387
▁about	-388
▁financ	-389
▁comm	-390
▁no	-391
▁Ind	-392
▁could	-393
▁most	-394
ism	-395
▁cons	-396
ople	-397
▁It	-398
fic	-399
▁market	-400
▁bet	-401
▁there	-402
▁such	-403
▁sp	-404
ited	-405
▁per	-406
▁supp	-407
▁19	-408
▁ban	-409
▁develop	-410
▁str	-411
▁now	-412
▁invest	-413
ublic	-414
▁long	-415
uch	-416
▁go	-417
ious	-418
ord	-419
▁people	-420
ish	-421
ments	-422
▁qu	-423
ative	-424
oll	-425
▁were	-426
▁ar	-427
ange	-428
▁acc	-429
▁cl	-430
▁even	-431
▁policy	-432
▁them	-433
▁country	-434
ution	-435
▁rel	-436
▁if	-437
ew	-438
old	-439
lect	-440
▁years	-441
▁some	-442
▁financial	-443
▁k	-444
ble	-445
▁St	-446
uc	-447
ces	-448
▁increas	-449
▁many	-450
▁up	-451
▁under	-452
▁em	-453
▁rem	-454
ber	-455
▁cap	-456
amp	-457
▁inf	-458
ough	-459
ach	-460
int	-461
bt	-462
00	-463
▁European	-464
▁This	-465
ause	-466
ice	-467
uss	-468
▁sy	-469
ace	-470
und	-471
ame	-472
▁cur	-473
ons	-474
▁when	-475
ang	-476
▁app	-477
av	-478
king	-479
lear	-480
▁Is	-481
ric	-482
▁power	-483
per	-484
gy	-485
▁must	-486
ass	-487
▁economy	-488
eral	-489
very	-490
vent	-491
pect	-492
▁these	-493
▁tw	-494
illion	-495
▁lar	-496
act	-497
▁may	-498
▁into	-499
we	-500
own	-501
▁ro	-502
stem	-503
▁soc	-504
resident	-505
cess	-506
▁what	-507
▁trad	-508
erv	-509
erest	-510
▁fir	-511
▁And	-512
▁am	-513
rough	-514
▁time	-515
▁intern	-516
▁produ	-517
ory	-518
▁us	-519
▁cris	-520
ices	-521
▁much	-522
▁Af	-523
stit	-524
ating	-525
▁how	-526
▁had	-527
▁po	-528
▁rep	-529
▁att	-530
ise	-531
ms	-532
lud	-533
ital	-534
▁sc	-535
▁system	-536
▁ra	-537
ced	-538
▁public	-539
▁act	-540
▁cent	-541
▁dif	-542
its	-543
▁any	-544
ful	-545
ind	-546
ax	-547
▁mon	-548
ual	-549
▁again	-550
▁pos	-551
ount	-552
▁interest	-553
ible	-554
▁200	-555
▁Russ	-556
▁te	-557
urn	-558
▁leaders	-559
alth	-560
▁work	-561
▁prov	-562
ite	-563
▁conf	-564
.”	-565
ular	-566
ond	-567
▁EU	-568
▁ow	-569
ert	-570
ild	-571
ists	-572
▁201	-573
▁co	-574
ov	-575
▁crisis	-576
▁gen	-577
get	-578
hed	-579
iet	-580
▁high	-581
▁just	-582
ied	-583
▁United	-584
▁international	-585
ific	-586
▁real	-587
▁war	-588
▁ac	-589
hip	-590
ade	-591
ob	-592
▁well	-593
▁import	-594
ization	-595
▁two	-596
▁trans	-597
olog	-598
▁support	-599
▁ref	-600
ient	-601
▁recent	-602
oth	-603
vers	-604
▁because	-605
▁proble	-606
▁way	-607
eed	-608
▁Y	-609
▁fore	-610
ruct	-611
inist	-612
ase	-613
ween	-614
itt	-615
hen	-616
ran	-617
iss	-618
ral	-619
ics	-620
cur	-621
▁debt	-622
▁opp	-623
▁between	-624
ef	-625
ese	-626
▁those	-627
▁man	-628
iven	-629
ove	-630
▁America	-631
▁def	-632
▁far	-633
ict	-634
ject	-635
ives	-636
ilit	-637
▁right	-638
▁des	-639
apan	-640
low	-641
aw	-642
▁remain	-643
▁end	-644
imate	-645
rent	-646
pec	-647
▁less	-648
ound	-649
ize	-650
sel	-651
ward	-652
▁includ	-653
loy	-654
▁fact	-655
▁contin	-656
▁For	-657
▁Japan	-658
▁too	-659
▁Wh	-660
▁effect	-661
uring	-662
ploy	-663
▁Germ	-664
ail	-665
aj	-666
▁state	-667
▁while	-668
▁tax	-669
ues	-670
ings	-671
atic	-672
round	-673
read	-674
▁prog	-675
vel	-676
ry	-677
ince	-678
▁ass	-679
▁our	-680
rit	-681
▁ent	-682
▁pop	-683
▁national	-684
ption	-685
▁sur	-686
▁mod	-687
▁first	-688
term	-689
▁own	-690
ures	-691
▁large	-692
▁af	-693
▁democ	-694
ural	-695
▁result	-696
ration	-697
▁mem	-698
▁sub	-699
lp	-700
▁resp	-701
led	-702
▁off	-703
▁reform	-704
▁On	-705
▁ob	-706
▁sim	-707
▁adv	-708
▁region	-709
▁add	-710
ajor	-711
▁help	-712
ability	-713
▁against	-714
ized	-715
fere	-716
▁both	-717
▁redu	-718
pr	-719
▁seem	-720
▁requ	-721
curity	-722
ially	-723
▁examp	-724
▁ext	-725
▁current	-726
▁last	-727
▁cost	-728
▁major	-729
chn	-730
▁Se	-731
▁infl	-732
▁kn	-733
▁Russia	-734
ians	-735
aking	-736
▁partic	-737
▁capital	-738
▁euro	-739
rib	-740
▁conc	-741
▁milit	-742
▁change	-743
▁fund	-744
▁after	-745
▁sign	-746
les	-747
cal	-748
ood	-749
oun	-750
▁great	-751
▁bo	-752
▁trade	-753
▁ben	-754
▁ke	-755
▁investment	-756
rael	-757
utions	-758
allen	-759
▁make	-760
▁good	-761
▁banks	-762
orts	-763
▁become	-764
▁prot	-765
ically	-766
▁example	-767
ays	-768
▁If	-769
ty	-770
ex	-771
▁through	-772
gan	-773
▁Iran	-774
ts	-775
▁cre	-776
▁dep	-777
▁markets	-778
ump	-779
▁important	-780
▁appro	-781
ram	-782
▁$	-783
▁governments	-784
day	-785
▁hum	-786
ense	-787
▁cor	-788
ging	-789
▁Israel	-790
ather	-791
▁fail	-792
ending	-793
▁social	-794
▁demand	-795
▁instit	-796
▁techn	-797
▁bu	-798
▁lo	-799
▁where	-800
▁ret	-801
ract	-802
gest	-803
▁rest	-804
▁est	-805
▁aut	-806
▁President	-807
▁foreign	-808
▁West	-809
other	-810
▁does	-811
▁States	-812
ting	-813
ank	-814
▁rates	-815
▁fut	-816
ortun	-817
ath	-818
▁emer	-819
▁policies	-820
iness	-821
▁leg	-822
▁iss	-823
▁back	-824
▁sa	-825
▁prom	-826
less	-827
olution	-828
▁military	-829
ok	-830
uclear	-831
ulation	-832
▁every	-833
▁Indeed	-834
arly	-835
als	-836
▁main	-837
ater	-838
▁offic	-839
▁health	-840
ergy	-841
▁Tr	-842
ft	-843
▁ins	-844
▁risk	-845
▁That	-846
▁More	-847
▁challen	-848
ined	-849
,”	-850
▁differe	-851
ision	-852
▁India	-853
▁today	-854
▁future	-855
DP	-856
▁still	-857
▁cour	-858
ential	-859
ually	-860
▁Chinese	-861
ccess	-862
ily	-863
▁ord	-864
▁elect	-865
▁same	-866
▁cred	-867
eg	-868
iew	-869
▁bas	-870
ri	-871
▁development	-872
▁benef	-873
▁economies	-874
▁V	-875
ron	-876
▁being	-877
▁dom	-878
▁American	-879
eration	-880
▁since	-881
ning	-882
▁el	-883
▁strate	-884
etary	-885
▁disc	-886
▁neg	-887
ingly	-888
ness	-889
▁use	-890
hing	-891
▁sm	-892
fore	-893
iscal	-894
▁set	-895
▁tra	-896
ants	-897
▁rate	-898
▁strong	-899
omm	-900
▁level	-901
▁br	-902
ior	-903
idd	-904
▁Afric	-905
▁including	-906
▁val	-907
▁human	-908
▁might	-909
▁nuclear	-910
▁ter	-911
outh	-912
▁ed	-913
bers	-914
orth	-915
ployment	-916
▁bel	-917
▁agree	-918
▁commun	-919
ably	-920
▁Germany	-921
imes	-922
▁likely	-923
▁serv	-924
▁priv	-925
▁success	-926
▁see	-927
pl	-928
usiness	-929
▁low	-930
ten	-931
ared	-932
inc	-933
ready	-934
▁pur	-935
).	-936
▁take	-937
ever	-938
▁problem	-939
▁equ	-940
ell	-941
ality	-942
ieve	-943
▁vot	-944
▁call	-945
▁clear	-946
▁op	-947
▁prices	-948
▁billion	-949
not	-950
cept	-951
▁East	-952
▁did	-953
▁term	-954
▁energy	-955
),	-956
▁short	-957
ved	-958
▁3	-959
▁fiscal	-960
▁reas	-961
rab	-962
ctor	-963
▁technolog	-964
ged	-965
▁without	-966
▁security	-967
▁pers	-968
▁made	-969
▁compet	-970
▁GDP	-971
▁contro	-972
▁already	-973
▁better	-974
▁threat	-975
li	-976
ency	-977
▁central	-978
▁point	-979
▁hist	-980
▁ide	-981
▁ser	-982
▁particular	-983
▁es	-984
arch	-985
lam	-986
ertain	-987
oss	-988
ider	-989
zone	-990
rast	-991
▁quest	-992
ss	-993
abor	-994
▁Brit	-995
▁poss	-996
▁hig	-997
istan	-998
cond	-999
rem	-1000
iddle	-1001
▁business	-1002
▁ann	-1003
▁stand	-1004
ered	-1005
ving	-1006
racy	-1007
▁med	-1008
▁know	-1009
▁down	-1010
▁Kore	-1011
ges	-1012
▁educ	-1013
ama	-1014
ger	-1015
ars	-1016
▁product	-1017
tern	-1018
▁Trump	-1019
▁consum	-1020
ush	-1021
0%	-1022
abl	-1023
▁decl	-1024
▁ap	-1025
▁states	-1026
▁Ob	-1027
▁Int	-1028
▁We	-1029
▁dire	-1030
hor	-1031
ury	-1032
ollow	-1033
ents	-1034
▁prop	-1035
▁So	-1036
▁then	-1037
▁rev	-1038
▁indust	-1039
▁job	-1040
▁dist	-1041
ck	-1042
▁aff	-1043
xt	-1044
▁cannot	-1045
▁arg	-1046
▁pres	-1047
▁Gree	-1048
osed	-1049
▁often	-1050
ivers	-1051
▁expect	-1052
▁protect	-1053
▁Bank	-1054
roup	-1055
mental	-1056
▁president	-1057
▁Wor	-1058
▁Fr	-1059
here	-1060
▁turn	-1061
ines	-1062
▁order	-1063
▁imm	-1064
land	-1065
ouse	-1066
▁process	-1067
ratic	-1068
▁law	-1069
▁ev	-1070
▁There	-1071
▁To	-1072
ink	-1073
▁With	-1074
▁another	-1075
▁Sy	-1076
▁oil	-1077
▁course	-1078
▁among	-1079
▁At	-1080
▁They	-1081
iron	-1082
▁Arab	-1083
▁few	-1084
▁ele	-1085
▁start	-1086
▁three	-1087
▁private	-1088
self	-1089
▁very	-1090
oney	-1091
por	-1092
▁bank	-1093
▁fac	-1094
▁Asia	-1095
▁hard	-1096
▁institutions	-1097
ah	-1098
▁clo	-1099
▁move	-1100
▁toward	-1101
▁follow	-1102
▁impro	-1103
raq	-1104
▁view	-1105
▁allow	-1106
iving	-1107
aly	-1108
▁climate	-1109
rug	-1110
▁Obama	-1111
ivid	-1112
▁pot	-1113
ience	-1114
▁Re	-1115
stand	-1116
▁Iraq	-1117
▁before	-1118
uel	-1119
itions	-1120
ves	-1121
inister	-1122
▁ful	-1123
▁199	-1124
▁pay	-1125
aps	-1126
uge	-1127
▁million	-1128
ades	-1129
cing	-1130
hold	-1131
ead	-1132
▁rul	-1133
▁env	-1134
▁av	-1135
ret	-1136
▁lif	-1137
▁An	-1138
▁adm	-1139
▁past	-1140
▁eas	-1141
▁Al	-1142
omen	-1143
ructure	-1144
anies	-1145
up	-1146
▁eurozone	-1147
▁ine	-1148
▁weak	-1149
▁Moreover	-1150
▁money	-1151
▁De	-1152
ute	-1153
▁role	-1154
▁members	-1155
▁increase	-1156
▁ant	-1157
▁Union	-1158
▁rather	-1159
▁monetary	-1160
ages	-1161
▁child	-1162
stain	-1163
▁peace	-1164
▁least	-1165
▁ach	-1166
ued	-1167
▁num	-1168
ying	-1169
ittle	-1170
▁form	-1171
ately	-1172
▁press	-1173
ick	-1174
ross	-1175
▁Islam	-1176
▁around	-1177
▁lim	-1178
lement	-1179
▁Syr	-1180
ances	-1181
▁group	-1182
ph	-1183
▁mat	-1184
most	-1185
ror	-1186
ources	-1187
▁higher	-1188
▁put	-1189
▁prof	-1190
ibility	-1191
▁sustain	-1192
io	-1193
road	-1194
ening	-1195
▁approach	-1196
▁though	-1197
▁societ	-1198
▁defic	-1199
▁South	-1200
urther	-1201
▁inst	-1202
▁vi	-1203
itiz	-1204
▁beh	-1205
▁play	-1206
▁World	-1207
▁income	-1208
▁official	-1209
▁little	-1210
▁companies	-1211
▁account	-1212
▁whether	-1213
▁author	-1214
▁opportun	-1215
▁inflation	-1216
▁ens	-1217
▁curren	-1218
▁meas	-1219
gin	-1220
▁asse	-1221
▁effective	-1222
▁small	-1223
ficult	-1224
▁loc	-1225
▁different	-1226
▁car	-1227
▁labor	-1228
▁difficult	-1229
▁signific	-1230
▁control	-1231
▁par	-1232
▁Tur	-1233
▁credit	-1234
ining	-1235
▁month	-1236
pecially	-1237
▁next	-1238
ides	-1239
oti	-1240
▁problems	-1241
ished	-1242
akes	-1243
ocus	-1244
▁chang	-1245
▁developing	-1246
vere	-1247
▁needs	-1248
▁Intern	-1249
▁establ	-1250
▁5	-1251
▁needed	-1252
▁gener	-1253
▁spec	-1254
ering	-1255
aim	-1256
▁concern	-1257
▁relations	-1258
▁gu	-1259
▁crit	-1260
▁citiz	-1261
▁ph	-1262
alest	-1263
▁fe	-1264
ivil	-1265
▁Africa	-1266
▁environ	-1267
▁case	-1268
▁run	-1269
▁appe	-1270
ix	-1271
estic	-1272
▁reason	-1273
ash	-1274
ened	-1275
▁exper	-1276
▁conflic	-1277
▁focus	-1278
▁spending	-1279
▁sol	-1280
▁Comm	-1281
▁ca	-1282
▁get	-1283
▁He	-1284
ivity	-1285
▁plan	-1286
ted	-1287
imin	-1288
acy	-1289
▁simp	-1290
▁especially	-1291
ner	-1292
air	-1293
ogn	-1294
▁address	-1295
▁education	-1296
▁remains	-1297
▁rise	-1298
idence	-1299
ases	-1300
▁democracy	-1301
▁why	-1302
▁cond	-1303
reed	-1304
▁free	-1305
▁cut	-1306
▁France	-1307
▁non	-1308
▁share	-1309
▁Rep	-1310
itive	-1311
▁significant	-1312
▁tar	-1313
▁Korea	-1314
▁doll	-1315
change	-1316
▁fall	-1317
▁him	-1318
▁pros	-1319
▁negoti	-1320
▁come	-1321
▁When	-1322
▁during	-1323
▁happ	-1324
▁rese	-1325
▁Fed	-1326
▁poor	-1327
▁respons	-1328
▁show	-1329
▁return	-1330
▁domestic	-1331
sequ	-1332
▁decades	-1333
▁civil	-1334
▁means	-1335
ird	-1336
▁deep	-1337
for	-1338
▁emerging	-1339
▁want	-1340
▁question	-1341
▁mass	-1342
vention	-1343
▁big	-1344
▁citizens	-1345
▁longer	-1346
▁find	-1347
▁bal	-1348
ators	-1349
itional	-1350
omet	-1351
▁4	-1352
▁further	-1353
▁reforms	-1354
urd	-1355
pite	-1356
▁North	-1357
▁Palest	-1358
▁viol	-1359
▁costs	-1360
anced	-1361
epend	-1362
▁suff	-1363
▁eng	-1364
▁efforts	-1365
▁continue	-1366
▁however	-1367
ork	-1368
ling	-1369
▁others	-1370
▁col	-1371
cies	-1372
▁almost	-1373
▁gain	-1374
▁progress	-1375
▁hal	-1376
vious	-1377
ission	-1378
▁serious	-1379
az	-1380
▁nat	-1381
▁price	-1382
▁requi	-1383
▁given	-1384
▁best	-1385
▁her	-1386
▁build	-1387
▁inn	-1388
izing	-1389
▁women	-1390
▁seems	-1391
ave	-1392
▁pat	-1393
▁meet	-1394
▁ago	-1395
omes	-1396
▁second	-1397
▁key	-1398
▁Sh	-1399
▁stud	-1400
way	-1401
pid	-1402
▁say	-1403
▁sector	-1404
▁occ	-1405
▁hand	-1406
▁camp	-1407
▁organ	-1408
ither	-1409
▁within	-1410
the	-1411
▁fam	-1412
▁you	-1413
formation	-1414
▁recogn	-1415
▁terror	-1416
▁er	-1417
▁election	-1418
lf	-1419
▁potential	-1420
000	-1421
▁hold	-1422
▁const	-1423
arm	-1424
▁dr	-1425
▁One	-1426
▁claim	-1427
hes	-1428
ope	-1429
▁direct	-1430
▁yet	-1431
▁increasingly	-1432
▁access	-1433
▁coll	-1434
▁model	-1435
▁benefits	-1436
▁found	-1437
▁population	-1438
▁growing	-1439
▁provide	-1440
▁my	-1441
ising	-1442
ided	-1443
▁agreement	-1444
key	-1445
,000	-1446
▁enough	-1447
cent	-1448
▁tru	-1449
udget	-1450
▁project	-1451
nce	-1452
ock	-1453
▁understand	-1454
▁care	-1455
ences	-1456
▁post	-1457
▁itself	-1458
▁event	-1459
tain	-1460
▁Middle	-1461
▁require	-1462
▁prevent	-1463
▁Part	-1464
▁administ	-1465
wh	-1466
ai	-1467
be	-1468
arn	-1469
▁comple	-1470
▁cho	-1471
▁particularly	-1472
lus	-1473
▁lib	-1474
lim	-1475
▁While	-1476
▁used	-1477
▁treat	-1478
▁currency	-1479
empt	-1480
▁slow	-1481
▁consider	-1482
ale	-1483
▁Yet	-1484
▁greater	-1485
▁regime	-1486
▁she	-1487
ipl	-1488
▁sug	-1489
▁Greece	-1490
reng	-1491
▁interests	-1492
▁lower	-1493
▁caus	-1494
▁War	-1495
icient	-1496
▁life	-1497
selves	-1498
▁services	-1499
ool	-1500
ention	-1501
▁regul	-1502
te	-1503
▁rights	-1504
▁deal	-1505
▁workers	-1506
▁resources	-1507
sp	-1508
▁regional	-1509
▁terms	-1510
ression	-1511
▁target	-1512
▁streng	-1513
iqu	-1514
ividual	-1515
▁After	-1516
▁Turkey	-1517
▁number	-1518
▁By	-1519
▁Pr	-1520
yn	-1521
rate	-1522
▁recently	-1523
▁left	-1524
ON	-1525
▁budget	-1526
rop	-1527
rastructure	-1528
come	-1529
ised	-1530
▁mult	-1531
▁never	-1532
ug	-1533
▁unem	-1534
▁open	-1535
▁innov	-1536
▁init	-1537
verage	-1538
▁These	-1539
ik	-1540
▁min	-1541
▁integ	-1542
▁place	-1543
▁force	-1544
▁certain	-1545
▁common	-1546
▁gr	-1547
▁deb	-1548
▁Republic	-1549
0’	-1550
man	-1551
▁ren	-1552
▁impact	-1553
▁each	-1554
▁shif	-1555
▁politics	-1556
▁thus	-1557
ession	-1558
haps	-1559
▁suggest	-1560
ners	-1561
▁former	-1562
like	-1563
▁Pol	-1564
▁enc	-1565
▁Le	-1566
ived	-1567
▁dest	-1568
▁What	-1569
▁individual	-1570
rench	-1571
▁Con	-1572
▁ur	-1573
▁face	-1574
▁home	-1575
▁reduce	-1576
▁reflect	-1577
▁influ	-1578
▁rapid	-1579
ination	-1580
▁oppos	-1581
ording	-1582
▁local	-1583
▁simil	-1584
▁contrib	-1585
ief	-1586
▁children	-1587
▁Western	-1588
▁strateg	-1589
▁tal	-1590
oming	-1591
ec	-1592
▁relative	-1593
5%	-1594
ban	-1595
▁Palestin	-1596
▁accept	-1597
▁possible	-1598
ateral	-1599
▁history	-1600
omp	-1601
ier	-1602
cil	-1603
▁oper	-1604
▁New	-1605
ends	-1606
▁industr	-1607
where	-1608
▁char	-1609
ified	-1610
iate	-1611
akistan	-1612
▁report	-1613
kra	-1614
▁spe	-1615
▁Syria	-1616
▁begin	-1617
oura	-1618
▁sec	-1619
▁risks	-1620
▁broad	-1621
atives	-1622
▁bl	-1623
aign	-1624
ises	-1625
▁value	-1626
▁unt	-1627
▁UN	-1628
▁fl	-1629
utin	-1630
▁infrastructure	-1631
▁6	-1632
▁extrem	-1633
▁pred	-1634
▁conflict	-1635
ased	-1636
▁Ukra	-1637
▁coop	-1638
ield	-1639
ceed	-1640
▁fear	-1641
▁somet	-1642
▁sav	-1643
▁implement	-1644
akers	-1645
▁issues	-1646
▁strategy	-1647
▁stability	-1648
▁half	-1649
▁necess	-1650
aged	-1651
▁society	-1652
▁campaign	-1653
▁ru	-1654
▁forces	-1655
iod	-1656
aken	-1657
▁jobs	-1658
▁exchange	-1659
▁Pakistan	-1660
▁challenges	-1661
▁dang	-1662
▁che	-1663
▁funda	-1664
▁consequ	-1665
▁mean	-1666
gypt	-1667
▁lack	-1668
▁Even	-1669
▁bor	-1670
▁head	-1671
ront	-1672
▁cult	-1673
▁create	-1674
iation	-1675
▁once	-1676
▁themselves	-1677
▁investors	-1678
▁member	-1679
ards	-1680
ways	-1681
▁Egypt	-1682
ata	-1683
▁Ar	-1684
▁ever	-1685
onal	-1686
▁bond	-1687
0.	-1688
oid	-1689
▁saf	-1690
abil	-1691
▁sense	-1692
▁leadership	-1693
▁repres	-1694
▁independ	-1695
-2	-1696
▁house	-1697
ats	-1698
uslim	-1699
▁Cent	-1700
istic	-1701
▁struct	-1702
▁step	-1703
▁sch	-1704
▁2008	-1705
▁French	-1706
▁democratic	-1707
▁able	-1708
▁action	-1709
▁rising	-1710
lation	-1711
▁Fin	-1712
▁believe	-1713
▁research	-1714
overty	-1715
ys	-1716
▁dev	-1717
▁led	-1718
▁early	-1719
▁unemployment	-1720
▁administration	-1721
▁levels	-1722
▁program	-1723
▁politic	-1724
▁wr	-1725
▁Minister	-1726
▁la	-1727
ins	-1728
▁fight	-1729
▁improve	-1730
▁ensure	-1731
▁net	-1732
ilateral	-1733
▁commit	-1734
▁popul	-1735
▁community	-1736
side	-1737
▁exist	-1738
arian	-1739
▁dou	-1740
gether	-1741
▁together	-1742
oral	-1743
▁old	-1744
▁decision	-1745
▁bring	-1746
erve	-1747
▁rules	-1748
▁maintain	-1749
▁keep	-1750
▁wealth	-1751
conomic	-1752
▁sit	-1753
▁comb	-1754
▁achieve	-1755
▁disp	-1756
▁emb	-1757
▁Muslim	-1758
▁finance	-1759
▁Bush	-1760
▁expl	-1761
▁land	-1762
yond	-1763
▁purs	-1764
▁198	-1765
▁anti	-1766
▁Putin	-1767
▁constit	-1768
▁modern	-1769
uation	-1770
▁stat	-1771
▁British	-1772
dom	-1773
irst	-1774
emoc	-1775
▁similar	-1776
▁bre	-1777
to	-1778
makers	-1779
▁simply	-1780
▁vict	-1781
▁youn	-1782
▁close	-1783
▁issue	-1784
acc	-1785
▁making	-1786
▁dollar	-1787
▁challenge	-1788
▁century	-1789
▁gra	-1790
oint	-1791
though	-1792
▁times	-1793
▁poverty	-1794
▁increased	-1795
▁blo	-1796
▁measures	-1797
▁met	-1798
▁across	-1799
raw	-1800
▁recover	-1801
▁four	-1802
▁boost	-1803
▁period	-1804
▁balance	-1805
▁unc	-1806
incip	-1807
▁International	-1808
▁data	-1809
▁corpor	-1810
MF	-1811
rodu	-1812
▁pract	-1813
▁Of	-1814
iplom	-1815
ently	-1816
▁full	-1817
cial	-1818
RI	-1819
acks	-1820
▁technology	-1821
ium	-1822
▁fuel	-1823
utional	-1824
▁always	-1825
▁rule	-1826
isions	-1827
ler	-1828
ival	-1829
▁hope	-1830
▁danger	-1831
▁ident	-1832
▁Russian	-1833
▁establish	-1834
just	-1835
▁IMF	-1836
▁Some	-1837
▁weap	-1838
▁Britain	-1839
▁five	-1840
issions	-1841
▁food	-1842
▁German	-1843
▁employment	-1844
▁Ukraine	-1845
▁systems	-1846
▁sl	-1847
▁top	-1848
▁bord	-1849
bon	-1850
rupt	-1851
veral	-1852
▁aim	-1853
ively	-1854
▁else	-1855
▁true	-1856
▁based	-1857
▁decade	-1858
▁princip	-1859
ee	-1860
quality	-1861
▁loss	-1862
▁7	-1863
ended	-1864
ctions	-1865
onse	-1866
▁Sp	-1867
▁sure	-1868
▁sovere	-1869
▁encoura	-1870
▁self	-1871
▁Party	-1872
▁manage	-1873
▁$1	-1874
aring	-1875
▁parties	-1876
▁Sa	-1877
then	-1878
▁despite	-1879
▁information	-1880
mm	-1881
▁ty	-1882
▁diplom	-1883
wise	-1884
arent	-1885
▁party	-1886
▁abs	-1887
▁position	-1888
by	-1889
▁liberal	-1890
▁Or	-1891
▁regard	-1892
▁tre	-1893
▁sing	-1894
▁areas	-1895
▁amount	-1896
▁response	-1897
▁En	-1898
aster	-1899
▁refuge	-1900
uing	-1901
▁conditions	-1902
▁opportunity	-1903
▁advanced	-1904
ming	-1905
▁relig	-1906
▁promot	-1907
acity	-1908
▁Afgh	-1909
▁developed	-1910
▁adop	-1911
▁avoid	-1912
oh	-1913
▁dise	-1914
▁pressure	-1915
▁called	-1916
▁entire	-1917
▁sk	-1918
▁firms	-1919
▁invol	-1920
illions	-1921
▁bar	-1922
▁rece	-1923
irc	-1924
▁Central	-1925
lia	-1926
▁bad	-1927
ighb	-1928
▁officials	-1929
raz	-1930
▁groups	-1931
▁histor	-1932
▁school	-1933
▁Cl	-1934
▁said	-1935
▁Afghan	-1936
▁deficit	-1937
▁Americans	-1938
▁All	-1939
lt	-1940
iting	-1941
▁strengthen	-1942
▁var	-1943
rated	-1944
▁assets	-1945
ource	-1946
▁consumption	-1947
pped	-1948
▁dam	-1949
▁done	-1950
▁young	-1951
▁supply	-1952
▁tot	-1953
▁Coun	-1954
ned	-1955
▁mar	-1956
▁consequences	-1957
▁vis	-1958
▁effort	-1959
▁Council	-1960
▁whose	-1961
iveness	-1962
▁average	-1963
▁export	-1964
▁kind	-1965
ured	-1966
▁politicians	-1967
cl	-1968
rag	-1969
▁effects	-1970
▁ess	-1971
rams	-1972
▁UK	-1973
ify	-1974
▁Fund	-1975
▁until	-1976
ented	-1977
▁norm	-1978
▁production	-1979
▁requires	-1980
mber	-1981
ean	-1982
▁taken	-1983
ruption	-1984
▁creat	-1985
▁Q	-1986
▁cooperation	-1987
CB	-1988
▁unlike	-1989
▁working	-1990
▁productivity	-1991
▁reach	-1992
▁leading	-1993
▁several	-1994
▁Res	-1995
reg	-1996
▁changes	-1997
▁months	-1998
▁single	-1999
▁largest	-2000
▁look	-2001
▁borrow	-2002
razil	-2003
▁Pro	-2004
▁class	-2005
▁think	-2006
▁failed	-2007
▁neighb	-2008
▁annual	-2009
▁cause	-2010
▁assum	-2011
▁demon	-2012
▁weapons	-2013
▁Prime	-2014
▁water	-2015
▁coal	-2016
▁largely	-2017
▁respect	-2018
▁ill	-2019
▁created	-2020
imul	-2021
▁Cong	-2022
▁drug	-2023
▁household	-2024
rade	-2025
▁Many	-2026
▁successful	-2027
▁fav	-2028
▁death	-2029
▁Such	-2030
▁test	-2031
▁influence	-2032
▁don	-2033
▁structural	-2034
▁policymakers	-2035
igr	-2036
▁ways	-2037
liament	-2038
▁opposition	-2039
med	-2040
▁excess	-2041
▁popular	-2042
0,	-2043
oday	-2044
▁powerful	-2045
▁Bar	-2046
▁King	-2047
▁banking	-2048
▁Z	-2049
▁emissions	-2050
▁197	-2051
▁voters	-2052
▁leader	-2053
ne	-2054
▁debate	-2055
▁attempt	-2056
ensive	-2057
market	-2058
▁Democ	-2059
istance	-2060
down	-2061
▁massive	-2062
▁perform	-2063
▁programs	-2064
▁8	-2065
ched	-2066
wide	-2067
ds	-2068
▁fundamental	-2069
▁Ge	-2070
aging	-2071
▁Today	-2072
▁beyond	-2073
iversity	-2074
▁Par	-2075
▁agg	-2076
sid	-2077
▁prob	-2078
▁alone	-2079
▁total	-2080
▁determ	-2081
ored	-2082
▁gre	-2083
iding	-2084
▁initi	-2085
mb	-2086
▁Ab	-2087
▁Asian	-2088
▁counter	-2089
▁capacity	-2090
▁violence	-2091
▁scient	-2092
▁stimul	-2093
▁particip	-2094
▁environment	-2095
▁flow	-2096
▁live	-2097
▁day	-2098
▁Brazil	-2099
▁demonst	-2100
TO	-2101
rec	-2102
▁prec	-2103
ruction	-2104
▁kill	-2105
igration	-2106
▁Nations	-2107
▁funds	-2108
thing	-2109
▁agend	-2110
uted	-2111
ember	-2112
▁behav	-2113
▁necessary	-2114
omb	-2115
▁partners	-2116
▁affect	-2117
▁perhaps	-2118
ortunately	-2119
▁strategic	-2120
▁makes	-2121
▁transp	-2122
▁ECB	-2123
inking	-2124
▁Islamic	-2125
alled	-2126
▁Saud	-2127
▁industry	-2128
ene	-2129
▁Given	-2130
▁Japanese	-2131
▁expected	-2132
▁relationship	-2133
verse	-2134
ories	-2135
▁proper	-2136
▁expand	-2137
atory	-2138
▁having	-2139
itted	-2140
▁failure	-2141
▁majority	-2142
1,	-2143
▁away	-2144
▁goods	-2145
▁natural	-2146
▁quick	-2147
hood	-2148
arily	-2149
ously	-2150
▁activ	-2151
▁idea	-2152
▁media	-2153
reedom	-2154
▁underm	-2155
▁ability	-2156
ya	-2157
▁mov	-2158
▁shift	-2159
▁object	-2160
fer	-2161
▁lives	-2162
▁decline	-2163
lev	-2164
▁cy	-2165
▁pass	-2166
exic	-2167
▁opt	-2168
▁rad	-2169
▁began	-2170
ien	-2171
andid	-2172
ris	-2173
▁Now	-2174
▁give	-2175
▁ten	-2176
▁Italy	-2177
▁Mon	-2178
▁gas	-2179
▁prim	-2180
oviet	-2181
▁win	-2182
▁propos	-2183
▁elections	-2184
▁increasing	-2185
▁exports	-2186
▁del	-2187
▁Cons	-2188
▁Acc	-2189
▁aid	-2190
att	-2191
▁san	-2192
▁huge	-2193
▁benefit	-2194
▁sustainable	-2195
▁seen	-2196
▁Mexic	-2197
▁Afghanistan	-2198
▁ult	-2199
lying	-2200
▁Inst	-2201
gent	-2202
▁willing	-2203
▁subst	-2204
▁depend	-2205
▁mis	-2206
ledge	-2207
▁inequality	-2208
▁altern	-2209
▁candid	-2210
▁lost	-2211
▁soon	-2212
▁discuss	-2213
set	-2214
▁How	-2215
▁surpr	-2216
fact	-2217
▁clos	-2218
▁governance	-2219
▁eth	-2220
▁nearly	-2221
▁circ	-2222
▁obs	-2223
▁legit	-2224
▁negotiations	-2225
▁jud	-2226
▁perm	-2227
de	-2228
oring	-2229
▁later	-2230
60	-2231
▁break	-2232
▁legal	-2233
▁taxes	-2234
▁Pe	-2235
▁incent	-2236
sw	-2237
▁predict	-2238
▁rich	-2239
▁prosper	-2240
▁solution	-2241
▁mom	-2242
▁recovery	-2243
▁news	-2244
▁occur	-2245
▁Instead	-2246
▁innovation	-2247
▁prior	-2248
▁protection	-2249
▁reven	-2250
owers	-2251
▁feel	-2252
▁fram	-2253
▁doing	-2254
▁argu	-2255
▁evidence	-2256
▁ear	-2257
▁agenda	-2258
▁design	-2259
▁either	-2260
ton	-2261
▁wee	-2262
▁economists	-2263
▁Palestinian	-2264
▁vol	-2265
▁path	-2266
▁wide	-2267
▁contrast	-2268
▁NA	-2269
ream	-2270
▁unp	-2271
▁revolution	-2272
▁bonds	-2273
▁became	-2274
▁Commission	-2275
ape	-2276
▁prospect	-2277
▁amb	-2278
put	-2279
lies	-2280
▁third	-2281
▁comes	-2282
▁taking	-2283
▁environmental	-2284
▁respond	-2285
▁union	-2286
itarian	-2287
▁employ	-2288
▁experience	-2289
▁industrial	-2290
go	-2291
rugg	-2292
▁exc	-2293
apse	-2294
▁Like	-2295
▁Develop	-2296
line	-2297
▁really	-2298
▁Congress	-2299
uster	-2300
▁domin	-2301
▁9	-2302
▁read	-2303
▁owing	-2304
▁vir	-2305
ody	-2306
▁First	-2307
▁insur	-2308
▁Kingdom	-2309
▁general	-2310
▁authorities	-2311
▁represent	-2312
▁behind	-2313
▁middle	-2314
▁something	-2315
▁globalization	-2316
▁Lib	-2317
▁wrong	-2318
▁extreme	-2319
▁vote	-2320
▁highly	-2321
min	-2322
ternal	-2323
aced	-2324
▁State	-2325
▁things	-2326
based	-2327
▁living	-2328
▁nothing	-2329
lin	-2330
▁Geor	-2331
▁strugg	-2332
▁cru	-2333
▁side	-2334
chan	-2335
right	-2336
▁stock	-2337
erves	-2338
▁behavior	-2339
▁probably	-2340
▁subsid	-2341
▁values	-2342
▁along	-2343
▁opportunities	-2344
▁situation	-2345
rought	-2346
▁Soviet	-2347
▁trillion	-2348
▁Lat	-2349
ring	-2350
▁Saudi	-2351
▁ground	-2352
▁skill	-2353
▁attack	-2354
ieved	-2355
ufact	-2356
▁immed	-2357
▁trend	-2358
▁powers	-2359
▁presidential	-2360
ina	-2361
▁super	-2362
▁advant	-2363
nect	-2364
▁indic	-2365
▁estim	-2366
▁freedom	-2367
▁integration	-2368
▁investments	-2369
▁di	-2370
▁sw	-2371
▁shar	-2372
▁moment	-2373
▁rat	-2374
▁Ag	-2375
▁cases	-2376
▁goal	-2377
▁complex	-2378
▁X	-2379
▁late	-2380
▁recession	-2381
▁record	-2382
head	-2383
arant	-2384
zer	-2385
▁den	-2386
▁traditional	-2387
▁collapse	-2388
▁tem	-2389
▁reality	-2390
ricult	-2391
het	-2392
▁ge	-2393
aving	-2394
▁previous	-2395
▁deficits	-2396
▁laun	-2397
▁analy	-2398
izations	-2399
▁actually	-2400
▁substant	-2401
ology	-2402
▁using	-2403
▁matter	-2404
▁minister	-2405
ctors	-2406
▁worse	-2407
▁Security	-2408
while	-2409
▁Global	-2410
force	-2411
▁corporate	-2412
▁territ	-2413
▁National	-2414
▁uncertain	-2415
▁jo	-2416
imately	-2417
▁indeed	-2418
▁status	-2419
▁manufact	-2420
▁following	-2421
ls	-2422
▁arr	-2423
▁men	-2424
▁limited	-2425
▁attention	-2426
▁host	-2427
icy	-2428
▁ask	-2429
agn	-2430
aid	-2431
▁held	-2432
▁took	-2433
▁larger	-2434
iance	-2435
▁guarant	-2436
ung	-2437
▁Be	-2438
▁lat	-2439
▁adjust	-2440
▁include	-2441
▁resol	-2442
mp	-2443
▁mob	-2444
ulner	-2445
▁sharp	-2446
ension	-2447
▁coming	-2448
OR	-2449
▁deli	-2450
ological	-2451
▁corruption	-2452
ets	-2453
▁protest	-2454
▁NE	-2455
▁Latin	-2456
olit	-2457
ception	-2458
▁outcome	-2459
ired	-2460
ones	-2461
▁sett	-2462
▁air	-2463
▁ign	-2464
▁answ	-2465
▁relatively	-2466
▁prep	-2467
▁learn	-2468
▁According	-2469
▁standards	-2470
▁miss	-2471
▁mechan	-2472
▁concerns	-2473
▁NEW	-2474
▁Per	-2475
▁repl	-2476
▁avail	-2477
▁external	-2478
▁conv	-2479
▁Israeli	-2480
▁mere	-2481
▁collect	-2482
lig	-2483
▁Sim	-2484
▁burd	-2485
▁mist	-2486
▁stop	-2487
▁favor	-2488
▁announ	-2489
plus	-2490
▁near	-2491
▁reducing	-2492
▁rein	-2493
igrants	-2494
▁legis	-2495
▁attract	-2496
&#	-2497
iquid	-2498
▁religious	-2499
af	-2500
called	-2501
unction	-2502
▁quickly	-2503
▁movement	-2504
5,	-2505
▁known	-2506
▁purch	-2507
▁vulner	-2508
use	-2509
▁cat	-2510
▁African	-2511
ification	-2512
▁obvious	-2513
▁decisions	-2514
▁competition	-2515
▁results	-2516
▁Ad	-2517
▁framew	-2518
▁explain	-2519
▁fed	-2520
arter	-2521
▁confidence	-2522
▁let	-2523
iated	-2524
leg	-2525
▁produce	-2526
▁critical	-2527
▁unlikely	-2528
▁-	-2529
▁words	-2530
▁intervention	-2531
ters	-2532
ault	-2533
▁cities	-2534
ator	-2535
▁commitment	-2536
year	-2537
▁came	-2538
▁easy	-2539
▁asset	-2540
▁Ham	-2541
▁May	-2542
▁expans	-2543
▁meeting	-2544
▁certainly	-2545
▁rough	-2546
▁defense	-2547
▁refugees	-2548
ext	-2549
▁offer	-2550
AN	-2551
▁nar	-2552
▁surplus	-2553
sh	-2554
▁div	-2555
▁reb	-2556
▁suc	-2557
▁mind	-2558
ots	-2559
▁ve	-2560
▁Development	-2561
▁Mexico	-2562
▁attacks	-2563
lex	-2564
▁Spain	-2565
▁Barack	-2566
▁cuts	-2567
ached	-2568
▁sent	-2569
oy	-2570
▁desc	-2571
▁above	-2572
▁NATO	-2573
my	-2574
▁cal	-2575
▁agricult	-2576
▁ir	-2577
▁Most	-2578
▁Greek	-2579
entially	-2580
usterity	-2581
▁financing	-2582
▁technologies	-2583
▁caused	-2584
▁established	-2585
ensus	-2586
▁succeed	-2587
▁Sc	-2588
▁currently	-2589
▁responsibility	-2590
▁surv	-2591
▁becoming	-2592
itable	-2593
▁beginning	-2594
▁worldwide	-2595
▁Since	-2596
lier	-2597
▁enter	-2598
vest	-2599
▁reserves	-2600
▁Great	-2601
▁creating	-2602
hest	-2603
▁line	-2604
▁elsewhere	-2605
▁sovereign	-2606
osing	-2607
▁millions	-2608
kn	-2609
▁Europeans	-2610
utes	-2611
▁univers	-2612
orn	-2613
rary	-2614
▁hous	-2615
▁projects	-2616
ech	-2617
ancing	-2618
▁negative	-2619
▁days	-2620
ees	-2621
▁age	-2622
▁reject	-2623
ought	-2624
ressed	-2625
▁reasons	-2626
▁doubt	-2627
▁mechanism	-2628
▁recognize	-2629
9,	-2630
▁dyn	-2631
▁heav	-2632
bi	-2633
▁cle	-2634
▁products	-2635
▁expansion	-2636
▁dram	-2637
▁dangerous	-2638
▁fig	-2639
▁Internet	-2640
▁clearly	-2641
▁continued	-2642
50	-2643
▁six	-2644
action	-2645
▁liquid	-2646
▁Although	-2647
▁spread	-2648
app	-2649
▁sanctions	-2650
rain	-2651
▁art	-2652
▁tend	-2653
ici	-2654
▁typ	-2655
▁basic	-2656
oph	-2657
une	-2658
ries	-2659
▁repe	-2660
▁roughly	-2661
rex	-2662
val	-2663
▁No	-2664
▁tool	-2665
ane	-2666
▁ce	-2667
income	-2668
▁below	-2669
▁Govern	-2670
▁helped	-2671
nces	-2672
acter	-2673
erate	-2674
▁2012	-2675
▁brought	-2676
acro	-2677
▁uns	-2678
retary	-2679
▁carbon	-2680
▁Monetary	-2681
▁fair	-2682
▁positive	-2683
▁won	-2684
loc	-2685
▁bi	-2686
▁organizations	-2687
rep	-2688
ison	-2689
ogra	-2690
ordin	-2691
▁alternative	-2692
▁performance	-2693
▁summ	-2694
▁refere	-2695
▁everyone	-2696
rats	-2697
▁unf	-2698
▁essential	-2699
▁parliament	-2700
hem	-2701
▁deg	-2702
▁knowledge	-2703
DG	-2704
▁Ex	-2705
▁raise	-2706
▁renew	-2707
▁thing	-2708
▁creation	-2709
oking	-2710
▁outside	-2711
▁moral	-2712
▁family	-2713
ressive	-2714
▁competit	-2715
▁personal	-2716
▁forced	-2717
..	-2718
ature	-2719
▁introdu	-2720
▁mess	-2721
▁disease	-2722
erc	-2723
uth	-2724
part	-2725
▁Des	-2726
-1	-2727
▁det	-2728
▁red	-2729
▁gradu	-2730
light	-2731
▁building	-2732
▁II	-2733
rist	-2734
▁twent	-2735
▁source	-2736
▁according	-2737
▁assoc	-2738
ensions	-2739
▁allowed	-2740
▁company	-2741
enh	-2742
▁special	-2743
▁proposed	-2744
4,	-2745
add	-2746
▁18	-2747
▁elimin	-2748
▁independence	-2749
aries	-2750
▁existing	-2751
▁required	-2752
▁basis	-2753
▁choice	-2754
iment	-2755
▁severe	-2756
ites	-2757
▁austerity	-2758
▁businesses	-2759
cer	-2760
els	-2761
▁implic	-2762
▁distrib	-2763
▁1.	-2764
▁victory	-2765
3,	-2766
▁output	-2767
▁stimulus	-2768
ands	-2769
▁Mean	-2770
▁answer	-2771
atically	-2772
▁thereby	-2773
▁Republican	-2774
aper	-2775
encies	-2776
▁scale	-2777
▁Arabia	-2778
used	-2779
▁expert	-2780
▁factors	-2781
▁crises	-2782
▁prosperity	-2783
pro	-2784
▁allies	-2785
ony	-2786
▁Dep	-2787
▁federal	-2788
ortion	-2789
▁continues	-2790
equ	-2791
▁Sw	-2792
ograph	-2793
▁framework	-2794
▁thought	-2795
economic	-2796
▁Meanwhile	-2797
▁advantage	-2798
▁available	-2799
▁transform	-2800
-20	-2801
eneral	-2802
▁Leban	-2803
▁trust	-2804
▁center	-2805
▁person	-2806
▁Economic	-2807
ptember	-2808
▁Can	-2809
ilities	-2810
▁leave	-2811
▁Second	-2812
ilt	-2813
▁provided	-2814
▁individuals	-2815
▁science	-2816
160	-2817
160;	-2818
▁rapidly	-2819
IN	-2820
▁institutional	-2821
▁forward	-2822
rexit	-2823
▁Indian	-2824
▁Federal	-2825
omin	-2826
making	-2827
▁fully	-2828
▁radical	-2829
▁additional	-2830
▁generation	-2831
▁commod	-2832
%.	-2833
off	-2834
▁mal	-2835
▁September	-2836
ox	-2837
sy	-2838
osp	-2839
▁Other	-2840
▁minor	-2841
▁independent	-2842
▁societies	-2843
par	-2844
▁mot	-2845
erb	-2846
ili	-2847
▁imposs	-2848
▁internal	-2849
ients	-2850
▁gains	-2851
▁instead	-2852
▁office	-2853
ibly	-2854
rust	-2855
▁Aust	-2856
▁dynam	-2857
▁Sec	-2858
lling	-2859
▁damage	-2860
pol	-2861
unn	-2862
▁Hamas	-2863
▁argue	-2864
▁management	-2865
▁Ass	-2866
▁savings	-2867
▁netw	-2868
▁cover	-2869
of	-2870
▁virt	-2871
▁agreed	-2872
▁deliver	-2873
duct	-2874
phas	-2875
▁subject	-2876
&#160;	-2877
▁recon	-2878
▁worth	-2879
unt	-2880
▁Mar	-2881
▁Unf	-2882
▁contain	-2883
▁aimed	-2884
▁macro	-2885
▁supposed	-2886
ann	-2887
▁hy	-2888
▁Rev	-2889
▁simple	-2890
▁transition	-2891
▁imper	-2892
▁incentives	-2893
▁earn	-2894
▁mark	-2895
▁afford	-2896
▁eventually	-2897
▁technological	-2898
zero	-2899
▁extra	-2900
▁questions	-2901
lled	-2902
▁pain	-2903
emic	-2904
ellig	-2905
▁inev	-2906
▁engage	-2907
▁vision	-2908
▁contract	-2909
▁Simil	-2910
▁funding	-2911
▁Unfortunately	-2912
iety	-2913
ishing	-2914
▁bub	-2915
▁vast	-2916
▁households	-2917
▁trou	-2918
▁explo	-2919
▁increases	-2920
hens	-2921
▁buy	-2922
▁dict	-2923
ott	-2924
▁Finally	-2925
▁insurance	-2926
▁harm	-2927
undred	-2928
▁solutions	-2929
▁effectively	-2930
▁critic	-2931
oks	-2932
ustain	-2933
▁assess	-2934
▁seek	-2935
lusion	-2936
▁ahead	-2937
▁talks	-2938
▁wages	-2939
▁appears	-2940
▁overall	-2941
rel	-2942
▁conserv	-2943
▁legitim	-2944
▁activities	-2945
▁crucial	-2946
▁reduced	-2947
ventional	-2948
▁emp	-2949
onald	-2950
▁orig	-2951
▁loans	-2952
▁borders	-2953
▁mort	-2954
▁claims	-2955
▁reached	-2956
▁restric	-2957
▁economics	-2958
sc	-2959
▁12	-2960
▁flows	-2961
aterial	-2962
▁facing	-2963
▁stronger	-2964
▁boom	-2965
ashing	-2966
▁burden	-2967
▁impossible	-2968
▁2007	-2969
▁emphas	-2970
▁farm	-2971
▁thous	-2972
▁link	-2973
▁phys	-2974
▁widely	-2975
▁providing	-2976
▁Med	-2977
▁Despite	-2978
umb	-2979
▁turned	-2980
▁nor	-2981
▁ideas	-2982
oot	-2983
▁$2	-2984
olid	-2985
▁hop	-2986
▁terrorism	-2987
ware	-2988
▁chance	-2989
▁normal	-2990
▁whole	-2991
▁authority	-2992
▁diplomatic	-2993
▁exec	-2994
▁commer	-2995
▁dollars	-2996
▁Clint	-2997
ask	-2998
ohn	-2999
▁cross	-3000
▁losses	-3001
▁matters	-3002
▁communities	-3003
▁Tw	-3004
▁193	-3005
gence	-3006
▁area	-3007
▁points	-3008
▁housing	-3009
▁sectors	-3010
▁consensus	-3011
itud	-3012
▁Just	-3013
▁road	-3014
▁shared	-3015
▁elected	-3016
hel	-3017
▁Not	-3018
▁Ke	-3019
onents	-3020
▁urban	-3021
iter	-3022
ried	-3023
▁goals	-3024
abilities	-3025
▁directly	-3026
▁draw	-3027
▁Clinton	-3028
▁Palestinians	-3029
▁describ	-3030
▁Jew	-3031
▁appear	-3032
▁thinking	-3033
aff	-3034
care	-3035
▁connect	-3036
▁quality	-3037
▁Secretary	-3038
uk	-3039
▁era	-3040
▁your	-3041
▁engine	-3042
▁suggests	-3043
▁neighbors	-3044
augh	-3045
▁border	-3046
▁events	-3047
▁nature	-3048
▁industries	-3049
%,	-3050
ellect	-3051
▁precise	-3052
ober	-3053
▁minim	-3054
▁study	-3055
▁stable	-3056
▁followed	-3057
▁character	-3058
do	-3059
▁gap	-3060
▁Commun	-3061
▁consumer	-3062
▁nation	-3063
▁consumers	-3064
▁trying	-3065
▁service	-3066
oman	-3067
▁list	-3068
▁material	-3069
5.	-3070
opolit	-3071
▁Likewise	-3072
cont	-3073
▁196	-3074
▁culture	-3075
▁regions	-3076
▁significantly	-3077
cle	-3078
▁wat	-3079
nb	-3080
▁coup	-3081
▁limit	-3082
▁skills	-3083
den	-3084
▁Nor	-3085
arity	-3086
sector	-3087
▁politically	-3088
eng	-3089
rest	-3090
▁parts	-3091
▁liquidity	-3092
asion	-3093
▁occup	-3094
▁withd	-3095
▁pus	-3096
▁constra	-3097
▁deter	-3098
▁yield	-3099
▁Reserve	-3100
▁regulation	-3101
▁throughout	-3102
▁ultimately	-3103
▁encourage	-3104
▁mid	-3105
minbi	-3106
▁hundred	-3107
▁complete	-3108
▁My	-3109
▁Gaz	-3110
▁sal	-3111
celer	-3112
▁divid	-3113
▁vital	-3114
▁equity	-3115
fully	-3116
lands	-3117
▁wants	-3118
istent	-3119
▁sound	-3120
▁experien	-3121
▁difference	-3122
▁bro	-3123
▁prime	-3124
▁enh	-3125
aces	-3126
▁rob	-3127
▁fast	-3128
▁primary	-3129
going	-3130
pping	-3131
▁front	-3132
▁agreements	-3133
▁manufacturing	-3134
▁responsible	-3135
aul	-3136
rehens	-3137
▁fri	-3138
▁efficient	-3139
▁Pl	-3140
ustom	-3141
ulated	-3142
▁plans	-3143
▁easily	-3144
cher	-3145
▁tro	-3146
▁From	-3147
▁heart	-3148
elt	-3149
rect	-3150
▁fix	-3151
▁ste	-3152
▁size	-3153
iciency	-3154
▁seemed	-3155
▁Lebanon	-3156
▁warming	-3157
▁competitive	-3158
sec	-3159
lection	-3160
▁seeking	-3161
▁understanding	-3162
▁Net	-3163
▁poll	-3164
▁committed	-3165
▁John	-3166
▁sides	-3167
▁intellect	-3168
ORK	-3169
nbsp	-3170
▁Only	-3171
account	-3172
century	-3173
▁circum	-3174
ocks	-3175
▁Sen	-3176
eria	-3177
▁Soc	-3178
▁YORK	-3179
▁Col	-3180
▁sufficient	-3181
▁pursue	-3182
▁reduction	-3183
▁terrorist	-3184
▁city	-3185
▁soft	-3186
▁conduct	-3187
▁renminbi	-3188
vert	-3189
war	-3190
▁Mal	-3191
▁Syrian	-3192
▁referend	-3193
▁direction	-3194
▁name	-3195
▁poore	-3196
▁argued	-3197
▁default	-3198
▁2000	-3199
▁contrary	-3200
▁intellig	-3201
▁minist	-3202
nder	-3203
▁scen	-3204
▁wars	-3205
▁importance	-3206
▁Korean	-3207
▁actions	-3208
▁bilateral	-3209
1.	-3210
urs	-3211
▁Paris	-3212
▁steps	-3213
▁People	-3214
▁extent	-3215
▁provides	-3216
bo	-3217
▁trig	-3218
▁bail	-3219
atever	-3220
illing	-3221
▁summit	-3222
▁separ	-3223
▁fre	-3224
▁Over	-3225
▁jour	-3226
cember	-3227
▁Though	-3228
▁purp	-3229
lusive	-3230
▁argument	-3231
▁treatment	-3232
▁legitimacy	-3233
hern	-3234
▁destro	-3235
▁secure	-3236
▁vulnerable	-3237
▁embra	-3238
▁Christ	-3239
▁standard	-3240
▁Similarly	-3241
▁laws	-3242
▁cultural	-3243
auc	-3244
▁Sunn	-3245
▁demands	-3246
▁sources	-3247
▁flo	-3248
ender	-3249
▁core	-3250
▁promote	-3251
▁15	-3252
▁safe	-3253
▁save	-3254
▁quant	-3255
▁lending	-3256
▁excessive	-3257
iff	-3258
▁sens	-3259
holders	-3260
ovember	-3261
▁December	-3262
▁confront	-3263
ety	-3264
ops	-3265
angu	-3266
▁mut	-3267
▁reve	-3268
idency	-3269
▁enorm	-3270
▁subsidies	-3271
EL	-3272
▁apparent	-3273
nic	-3274
airs	-3275
▁dig	-3276
▁saving	-3277
▁produced	-3278
lif	-3279
sis	-3280
ique	-3281
antic	-3282
▁Trade	-3283
▁shows	-3284
▁withdraw	-3285
▁assistance	-3286
▁historical	-3287
cast	-3288
▁oblig	-3289
▁perman	-3290
▁targets	-3291
▁reflects	-3292
▁going	-3293
▁focused	-3294
▁sometimes	-3295
▁zero	-3296
▁displ	-3297
▁origin	-3298
▁meaning	-3299
▁property	-3300
▁push	-3301
▁anything	-3302
6,	-3303
▁Eng	-3304
▁House	-3305
▁pattern	-3306
▁November	-3307
▁structure	-3308
▁competitiveness	-3309
enth	-3310
▁tell	-3311
▁advoc	-3312
▁falling	-3313
▁immediate	-3314
▁substantial	-3315
ira	-3316
▁Thus	-3317
▁imag	-3318
▁takes	-3319
▁Brexit	-3320
▁faster	-3321
▁story	-3322
ustainable	-3323
▁log	-3324
▁George	-3325
▁partly	-3326
▁creditors	-3327
▁principle	-3328
▁multilateral	-3329
▁apprec	-3330
▁students	-3331
▁surve	-3332
▁intellectual	-3333
ita	-3334
▁defe	-3335
▁models	-3336
fficient	-3337
▁paid	-3338
▁serve	-3339
▁margin	-3340
▁scientific	-3341
▁expectations	-3342
pay	-3343
▁30	-3344
edly	-3345
▁try	-3346
▁limits	-3347
▁acceler	-3348
▁Xi	-3349
racies	-3350
▁aband	-3351
▁coalition	-3352
order	-3353
▁merely	-3354
▁regulatory	-3355
porary	-3356
▁Argent	-3357
▁Its	-3358
▁sou	-3359
▁batt	-3360
▁port	-3361
▁whom	-3362
▁latest	-3363
▁prospects	-3364
▁His	-3365
▁adopted	-3366
▁continent	-3367
▁commercial	-3368
▁week	-3369
▁option	-3370
▁neither	-3371
▁compared	-3372
men	-3373
uses	-3374
gency	-3375
▁Perhaps	-3376
▁changed	-3377
▁flex	-3378
▁frag	-3379
▁game	-3380
▁here	-3381
▁truth	-3382
▁earlier	-3383
▁referendum	-3384
oses	-3385
ights	-3386
▁biggest	-3387
▁enterpr	-3388
▁CA	-3389
▁electric	-3390
urm	-3391
izes	-3392
state	-3393
▁mand	-3394
▁shown	-3395
▁threats	-3396
▁Kh	-3397
▁York	-3398
▁becomes	-3399
▁finally	-3400
▁therefore	-3401
▁principles	-3402
▁mer	-3403
▁opin	-3404
▁abandon	-3405
uct	-3406
▁lose	-3407
▁faces	-3408
▁conclud	-3409
▁uncertainty	-3410
nty	-3411
▁acqu	-3412
▁Iranian	-3413
▁0.	-3414
▁compar	-3415
▁various	-3416
▁victim	-3417
▁announced	-3418
ignty	-3419
▁field	-3420
▁theory	-3421
zy	-3422
▁calls	-3423
ij	-3424
▁remark	-3425
▁membership	-3426
ancial	-3427
▁comprom	-3428
▁scenar	-3429
▁stabil	-3430
MB	-3431
iles	-3432
▁Mer	-3433
▁spend	-3434
▁thousands	-3435
com	-3436
▁Gu	-3437
▁Sch	-3438
▁abroad	-3439
EC	-3440
nal	-3441
orks	-3442
▁happen	-3443
▁Consider	-3444
▁presidency	-3445
▁book	-3446
▁Libya	-3447
▁Treat	-3448
▁Revolution	-3449
▁belief	-3450
▁function	-3451
▁Why	-3452
▁welf	-3453
acific	-3454
policy	-3455
▁Organ	-3456
▁speech	-3457
▁achieved	-3458
▁profession	-3459
▁Republicans	-3460
▁isol	-3461
▁stagn	-3462
▁himself	-3463
▁built	-3464
▁drugs	-3465
▁welfare	-3466
TON	-3467
▁Abe	-3468
▁dism	-3469
▁safety	-3470
▁General	-3471
rich	-3472
▁10%	-3473
▁imbal	-3474
▁accounts	-3475
▁circumst	-3476
ynes	-3477
ondon	-3478
third	-3479
▁unable	-3480
▁quarter	-3481
▁specific	-3482
idesp	-3483
thern	-3484
▁Last	-3485
▁Poland	-3486
idespread	-3487
uck	-3488
▁rele	-3489
▁adopt	-3490
orthern	-3491
▁incomes	-3492
▁Am	-3493
▁Ken	-3494
rehensive	-3495
anks	-3496
rowth	-3497
▁Both	-3498
▁wage	-3499
▁context	-3500
▁commodity	-3501
3.	-3502
▁worry	-3503
▁enable	-3504
▁macroeconomic	-3505
▁Cam	-3506
▁present	-3507
▁promise	-3508
▁lot	-3509
inary	-3510
▁vacc	-3511
▁volat	-3512
▁London	-3513
▁police	-3514
▁arrange	-3515
▁immigration	-3516
▁Go	-3517
▁Ju	-3518
aled	-3519
ulate	-3520
▁cash	-3521
▁profits	-3522
▁Econom	-3523
▁started	-3524
▁fighting	-3525
▁initiative	-3526
▁adap	-3527
▁prem	-3528
▁Their	-3529
▁bound	-3530
▁spent	-3531
▁tools	-3532
▁percent	-3533
▁trading	-3534
▁€	-3535
▁final	-3536
ubl	-3537
fect	-3538
▁stem	-3539
▁confere	-3540
▁sovereignty	-3541
iers	-3542
▁enj	-3543
aches	-3544
▁Gaza	-3545
▁solid	-3546
▁Treaty	-3547
▁precisely	-3548
ugh	-3549
▁deflation	-3550
▁widespread	-3551
▁CO	-3552
ossil	-3553
nam	-3554
▁Ph	-3555
itting	-3556
▁autom	-3557
▁candidates	-3558
iable	-3559
▁task	-3560
▁resulting	-3561
▁vers	-3562
▁diseases	-3563
▁Jan	-3564
▁sen	-3565
ifying	-3566
▁ethnic	-3567
▁insist	-3568
▁treaty	-3569
ieving	-3570
▁Donald	-3571
▁communic	-3572
▁struggle	-3573
kel	-3574
▁base	-3575
▁dead	-3576
▁went	-3577
▁space	-3578
▁addition	-3579
▁training	-3580
▁differences	-3581
vail	-3582
ING	-3583
know	-3584
levant	-3585
ference	-3586
▁circumstances	-3587
ER	-3588
inet	-3589
iring	-3590
▁barri	-3591
▁carry	-3592
▁causes	-3593
▁enormous	-3594
.)	-3595
▁pan	-3596
▁Comp	-3597
▁custom	-3598
▁geopolit	-3599
la	-3600
hib	-3601
▁secur	-3602
▁happened	-3603
ait	-3604
aling	-3605
ilies	-3606
▁optim	-3607
▁Eastern	-3608
▁operations	-3609
ray	-3610
icro	-3611
▁capt	-3612
▁comput	-3613
▁easing	-3614
▁strength	-3615
▁team	-3616
▁improved	-3617
▁supported	-3618
▁meant	-3619
▁managed	-3620
▁Su	-3621
▁Keynes	-3622
▁absence	-3623
▁appropr	-3624
▁running	-3625
▁possibility	-3626
▁2.	-3627
▁worst	-3628
AS	-3629
▁Bl	-3630
▁100	-3631
▁Har	-3632
ecause	-3633
▁round	-3634
▁trial	-3635
▁University	-3636
▁currencies	-3637
▁firm	-3638
▁gold	-3639
▁pack	-3640
rative	-3641
▁schools	-3642
▁intelligence	-3643
▁194	-3644
mar	-3645
ittee	-3646
▁bomb	-3647
▁prove	-3648
▁message	-3649
OND	-3650
▁hour	-3651
▁Those	-3652
▁concent	-3653
▁estimated	-3654
ONDON	-3655
▁June	-3656
▁army	-3657
▁publ	-3658
▁hands	-3659
▁leaving	-3660
aves	-3661
▁sex	-3662
idered	-3663
▁measure	-3664
▁promises	-3665
▁received	-3666
▁Organization	-3667
▁"	-3668
hetor	-3669
▁outc	-3670
▁clean	-3671
▁LONDON	-3672
▁giving	-3673
▁Muslims	-3674
▁launched	-3675
uild	-3676
▁spir	-3677
▁drive	-3678
▁depends	-3679
▁activity	-3680
▁efficiency	-3681
▁Ma	-3682
enez	-3683
▁Cold	-3684
▁wind	-3685
▁asked	-3686
enezuel	-3687
▁repeated	-3688
▁considered	-3689
ull	-3690
reced	-3691
▁fell	-3692
▁tried	-3693
▁Another	-3694
▁broader	-3695
▁restrict	-3696
usion	-3697
▁diss	-3698
▁sold	-3699
▁range	-3700
▁rural	-3701
▁Because	-3702
▁bankers	-3703
▁construction	-3704
▁lies	-3705
▁fossil	-3706
▁Austral	-3707
▁facilit	-3708
▁Venezuel	-3709
▁transport	-3710
▁Democratic	-3711
co	-3712
ching	-3713
▁ratio	-3714
▁anyone	-3715
▁rhetor	-3716
▁highest	-3717
▁families	-3718
The	-3719
▁Er	-3720
time	-3721
▁Merkel	-3722
▁deeply	-3723
▁advance	-3724
▁raising	-3725
▁revenue	-3726
▁revenues	-3727
▁conflicts	-3728
▁hit	-3729
actions	-3730
recedented	-3731
▁associated	-3732
▁considerable	-3733
▁langu	-3734
▁capita	-3735
▁collective	-3736
3%	-3737
gn	-3738
▁infect	-3739
standing	-3740
▁designed	-3741
▁weakness	-3742
7%	-3743
▁Bo	-3744
▁legislation	-3745
ios	-3746
rimin	-3747
▁bill	-3748
▁tight	-3749
▁inform	-3750
▁Argentina	-3751
▁exception	-3752
▁50	-3753
▁equal	-3754
▁farmers	-3755
▁helping	-3756
▁justice	-3757
▁medical	-3758
▁returns	-3759
▁populist	-3760
▁unprecedented	-3761
▁bure	-3762
▁stake	-3763
▁opinion	-3764
▁hundreds	-3765
▁sustained	-3766
itig	-3767
lied	-3768
mark	-3769
▁Bro	-3770
▁sum	-3771
▁der	-3772
utive	-3773
▁exceed	-3774
▁imports	-3775
▁ensuring	-3776
▁identity	-3777
etic	-3778
ashington	-3779
▁disaster	-3780
▁involved	-3781
▁remained	-3782
sych	-3783
whel	-3784
▁mortg	-3785
▁Social	-3786
▁migration	-3787
▁instability	-3788
▁constitution	-3789
uary	-3790
▁mostly	-3791
▁permanent	-3792
▁acknow	-3793
▁factor	-3794
▁multip	-3795
▁borrowing	-3796
▁democracies	-3797
▁gl	-3798
aria	-3799
▁talk	-3800
▁Polit	-3801
▁prevail	-3802
▁resistance	-3803
ih	-3804
ada	-3805
reet	-3806
▁Sunni	-3807
▁driven	-3808
uine	-3809
▁2009	-3810
ceived	-3811
▁views	-3812
▁everything	-3813
raft	-3814
▁smaller	-3815
▁agencies	-3816
▁economist	-3817
see	-3818
▁usually	-3819
▁consolid	-3820
▁generally	-3821
ethe	-3822
▁Ber	-3823
▁closer	-3824
▁raised	-3825
▁regulations	-3826
▁comprehensive	-3827
▁bureauc	-3828
ze	-3829
▁goes	-3830
▁1990’	-3831
▁frequ	-3832
▁visit	-3833
▁worked	-3834
▁entirely	-3835
bles	-3836
▁unw	-3837
▁sell	-3838
▁Invest	-3839
▁allowing	-3840
▁outcomes	-3841
orb	-3842
umm	-3843
rene	-3844
▁Man	-3845
▁prefer	-3846
▁troops	-3847
▁controls	-3848
▁Do	-3849
▁colle	-3850
▁hor	-3851
▁obst	-3852
▁rare	-3853
lantic	-3854
▁light	-3855
itative	-3856
▁changing	-3857
▁overwhel	-3858
▁candidate	-3859
▁partnership	-3860
wan	-3861
▁due	-3862
▁During	-3863
ague	-3864
icip	-3865
▁squ	-3866
▁weeks	-3867
▁choose	-3868
▁compens	-3869
▁electoral	-3870
▁Co	-3871
scal	-3872
▁Cour	-3873
6%	-3874
▁places	-3875
▁concept	-3876
▁declared	-3877
▁credibility	-3878
yle	-3879
uman	-3880
inent	-3881
▁Sing	-3882
ames	-3883
back	-3884
▁wel	-3885
▁body	-3886
▁upon	-3887
▁adequ	-3888
▁eight	-3889
▁emerged	-3890
▁tensions	-3891
▁capitalism	-3892
▁DC	-3893
▁2010	-3894
▁root	-3895
reprene	-3896
etheless	-3897
▁genuine	-3898
▁journal	-3899
▁perspect	-3900
▁Tal	-3901
scale	-3902
▁assert	-3903
▁ongoing	-3904
▁receive	-3905
▁slowdown	-3906
▁enab	-3907
▁stage	-3908
▁greatest	-3909
▁July	-3910
iately	-3911
▁destroy	-3912
ieth	-3913
▁sought	-3914
▁highlight	-3915
▁Washington	-3916
▁recognized	-3917
ulf	-3918
▁AI	-3919
▁quite	-3920
reasury	-3921
▁killed	-3922
▁decided	-3923
▁overcome	-3924
PP	-3925
▁pun	-3926
▁secular	-3927
▁conference	-3928
▁anim	-3929
▁susp	-3930
▁faced	-3931
raction	-3932
▁undermine	-3933
▁productive	-3934
ains	-3935
astro	-3936
uting	-3937
▁narrow	-3938
▁unless	-3939
ode	-3940
▁meth	-3941
▁cancer	-3942
▁crimin	-3943
▁instru	-3944
▁generate	-3945
▁suffering	-3946
4.	-3947
EN	-3948
ani	-3949
▁202	-3950
remlin	-3951
▁implies	-3952
▁populations	-3953
▁authoritarian	-3954
anda	-3955
coming	-3956
▁stands	-3957
▁restore	-3958
▁contribute	-3959
▁agricultural	-3960
▁organization	-3961
gen	-3962
▁Cal	-3963
▁getting	-3964
▁regimes	-3965
▁ey	-3966
▁Non	-3967
▁pen	-3968
eenth	-3969
▁Kremlin	-3970
▁mention	-3971
▁Islamist	-3972
▁payments	-3973
▁Financial	-3974
ints	-3975
orial	-3976
▁resist	-3977
▁offered	-3978
▁barriers	-3979
▁practices	-3980
aks	-3981
ula	-3982
▁Kim	-3983
▁Tai	-3984
which	-3985
▁Will	-3986
▁told	-3987
govern	-3988
▁forms	-3989
▁hardly	-3990
▁migrants	-3991
▁proposal	-3992
▁guarantee	-3993
▁participation	-3994
▁viewed	-3995
uries	-3996
▁digital	-3997
▁rhetoric	-3998
▁initiatives	-3999
▁potentially	-4000
ev	-4001
▁Nig	-4002
endit	-4003
▁Kurd	-4004
aching	-4005
▁Court	-4006
▁improving	-4007
▁geopolitical	-4008
4%	-4009
oil	-4010
▁ties	-4011
▁complic	-4012
▁nations	-4013
▁numbers	-4014
▁scientists	-4015
▁Then	-4016
▁depos	-4017
▁fears	-4018
▁supporters	-4019
▁transformation	-4020
IV	-4021
▁beg	-4022
▁Rather	-4023
▁deaths	-4024
▁diplomacy	-4025
▁percentage	-4026
DS	-4027
lar	-4028
▁Dav	-4029
▁block	-4030
▁lesson	-4031
▁forecast	-4032
antly	-4033
asing	-4034
▁plat	-4035
▁aggreg	-4036
▁moving	-4037
▁fundament	-4038
▁strategies	-4039
▁establishment	-4040
kept	-4041
itude	-4042
ares	-4043
▁revers	-4044
▁southern	-4045
▁entreprene	-4046
▁implemented	-4047
DGE	-4048
isc	-4049
MBRI	-4050
aste	-4051
ikes	-4052
efense	-4053
▁chann	-4054
MBRIDGE	-4055
▁Taiwan	-4056
▁mainly	-4057
▁Indones	-4058
▁CAMBRIDGE	-4059
▁estimates	-4060
▁otherwise	-4061
▁positions	-4062
▁commitments	-4063
ollah	-4064
▁bott	-4065
▁psych	-4066
▁alliance	-4067
▁practice	-4068
long	-4069
lows	-4070
risis	-4071
▁pace	-4072
reland	-4073
▁Under	-4074
▁combined	-4075
▁expendit	-4076
ote	-4077
▁Turk	-4078
▁arms	-4079
▁join	-4080
▁exerc	-4081
▁medium	-4082
▁experts	-4083
▁priority	-4084
1%	-4085
sts	-4086
▁fallen	-4087
▁played	-4088
▁transfer	-4089
7,	-4090
atis	-4091
▁Sea	-4092
▁mor	-4093
▁mach	-4094
▁debts	-4095
▁January	-4096
▁scenario	-4097
-200	-4098
more	-4099
▁esc	-4100
▁includes	-4101
▁correct	-4102
▁involve	-4103
▁sharply	-4104
▁analysis	-4105
car	-4106
lad	-4107
run	-4108
urt	-4109
ogue	-4110
▁exact	-4111
▁manip	-4112
▁Ireland	-4113
▁mechanisms	-4114
▁vo	-4115
anted	-4116
▁ordinary	-4117
-19	-4118
▁insp	-4119
istics	-4120
▁double	-4121
▁easier	-4122
▁suffer	-4123
▁electricity	-4124
▁implications	-4125
atures	-4126
▁remov	-4127
▁movements	-4128
▁ones	-4129
▁planet	-4130
▁disrupt	-4131
▁territory	-4132
▁continuing	-4133
rat	-4134
power	-4135
herent	-4136
▁defend	-4137
▁options	-4138
ructuring	-4139
▁universal	-4140
ria	-4141
▁ended	-4142
▁ruling	-4143
▁amounts	-4144
▁imbalances	-4145
▁conventional	-4146
▁distribution	-4147
wing	-4148
▁1990	-4149
▁rely	-4150
▁wanted	-4151
▁affairs	-4152
▁experienced	-4153
los	-4154
ods	-4155
▁har	-4156
▁accomp	-4157
▁actors	-4158
▁Brother	-4159
▁refugee	-4160
dden	-4161
▁demonstr	-4162
▁appropriate	-4163
raf	-4164
idents	-4165
▁2008,	-4166
▁compl	-4167
▁mount	-4168
▁works	-4169
▁intens	-4170
▁patients	-4171
▁aggregate	-4172
aren	-4173
▁Kong	-4174
▁pled	-4175
▁leverage	-4176
▁rational	-4177
▁everywhere	-4178
▁constitutional	-4179
▁room	-4180
ietnam	-4181
▁Trans	-4182
▁medic	-4183
▁proved	-4184
▁learned	-4185
▁prepared	-4186
doğ	-4187
▁Ital	-4188
▁Erdoğ	-4189
▁dimin	-4190
▁bankrupt	-4191
▁platform	-4192
▁protests	-4193
ery	-4194
uous	-4195
▁spur	-4196
▁Erdoğan	-4197
▁appoint	-4198
▁tradition	-4199
ipe	-4200
▁ep	-4201
▁Nob	-4202
▁drop	-4203
ctober	-4204
▁March	-4205
▁motiv	-4206
▁senior	-4207
SE	-4208
▁cell	-4209
▁aware	-4210
▁inevitable	-4211
eb	-4212
▁Hong	-4213
▁lines	-4214
▁seven	-4215
▁expensive	-4216
▁adjustment	-4217
▁objectives	-4218
▁combination	-4219
2,	-4220
▁Ro	-4221
▁court	-4222
related	-4223
▁degree	-4224
▁formal	-4225
IS	-4226
apital	-4227
iction	-4228
▁hopes	-4229
▁sudden	-4230
▁Whe	-4231
▁dro	-4232
▁enem	-4233
▁spect	-4234
▁impose	-4235
▁useful	-4236
▁October	-4237
▁Vietnam	-4238
▁resolve	-4239
▁twentieth	-4240
▁nationalism	-4241
alle	-4242
rage	-4243
illed	-4244
itter	-4245
▁gave	-4246
▁adapt	-4247
▁causing	-4248
▁driving	-4249
▁hon	-4250
▁Assad	-4251
▁armed	-4252
ivalent	-4253
▁desire	-4254
fall	-4255
▁accum	-4256
▁truly	-4257
▁immigrants	-4258
▁conservative	-4259
▁Te	-4260
▁Mod	-4261
▁calc	-4262
▁stra	-4263
▁Third	-4264
ructive	-4265
▁regulators	-4266
sk	-4267
▁gir	-4268
▁stay	-4269
▁Climate	-4270
▁replace	-4271
▁Democrats	-4272
ozy	-4273
▁phil	-4274
Americ	-4275
▁imped	-4276
▁bailout	-4277
▁reflected	-4278
▁underlying	-4279
2%	-4280
▁Our	-4281
▁fire	-4282
arency	-4283
arkozy	-4284
▁obser	-4285
▁devast	-4286
▁legisl	-4287
▁prison	-4288
▁Without	-4289
▁towards	-4290
▁profound	-4291
▁promised	-4292
▁enterprises	-4293
▁acad	-4294
▁gone	-4295
roduct	-4296
▁perspective	-4297
ails	-4298
cers	-4299
▁sil	-4300
▁bear	-4301
▁alloc	-4302
▁unique	-4303
▁enforce	-4304
▁imposed	-4305
▁poorest	-4306
▁corporations	-4307
pin	-4308
pret	-4309
adequ	-4310
▁believed	-4311
▁virtually	-4312
▁Br	-4313
▁Two	-4314
▁Sarkozy	-4315
▁violent	-4316
liferation	-4317
gia	-4318
oud	-4319
rud	-4320
ffect	-4321
▁murd	-4322
▁figure	-4323
▁agriculture	-4324
▁ec	-4325
aught	-4326
ipher	-4327
ronic	-4328
▁bubble	-4329
▁declining	-4330
8%	-4331
oke	-4332
▁asp	-4333
▁choices	-4334
▁networks	-4335
▁whatever	-4336
▁ministers	-4337
▁seriously	-4338
▁destruction	-4339
▁restructuring	-4340
enn	-4341
ney	-4342
utr	-4343
▁offers	-4344
▁travel	-4345
▁heavily	-4346
▁holding	-4347
▁victims	-4348
vis	-4349
iban	-4350
▁fulf	-4351
▁symb	-4352
▁green	-4353
▁monit	-4354
▁battle	-4355
▁owners	-4356
▁Communist	-4357
▁developments	-4358
ores	-4359
rown	-4360
▁type	-4361
▁enjoy	-4362
▁recomm	-4363
▁friends	-4364
▁credible	-4365
▁Indonesia	-4366
▁immediately	-4367
▁maintaining	-4368
oly	-4369
urb	-4370
▁li	-4371
▁wond	-4372
▁trends	-4373
▁inclusive	-4374
▁proposals	-4375
▁generations	-4376
▁Swed	-4377
▁ready	-4378
▁active	-4379
▁defeat	-4380
▁desper	-4381
▁studies	-4382
▁occurred	-4383
▁Parliament	-4384
look	-4385
▁50%	-4386
▁schem	-4387
▁elites	-4388
▁dynamic	-4389
▁Treasury	-4390
▁resolution	-4391
Ch	-4392
iant	-4393
▁mitig	-4394
itation	-4395
▁resc	-4396
▁cycle	-4397
▁determine	-4398
ocu	-4399
fers	-4400
anging	-4401
ployed	-4402
▁2010,	-4403
▁shape	-4404
▁cutting	-4405
▁peaceful	-4406
▁decis	-4407
▁deprec	-4408
▁robust	-4409
▁mistake	-4410
▁whereas	-4411
▁bringing	-4412
▁physical	-4413
▁decide	-4414
▁lessons	-4415
▁Australia	-4416
icle	-4417
ustr	-4418
itious	-4419
▁cheap	-4420
▁profit	-4421
▁inadequ	-4422
▁concerned	-4423
▁objective	-4424
▁typically	-4425
▁ut	-4426
fuel	-4427
▁Turkish	-4428
▁affected	-4429
▁investig	-4430
▁minority	-4431
▁addressing	-4432
rank	-4433
ties	-4434
▁Vlad	-4435
▁ment	-4436
▁blame	-4437
▁accord	-4438
▁10	-4439
iagn	-4440
mbly	-4441
▁195	-4442
owned	-4443
ugust	-4444
▁joint	-4445
▁leads	-4446
▁mobil	-4447
▁persu	-4448
▁react	-4449
▁subsequ	-4450
▁opponents	-4451
▁Gre	-4452
▁bul	-4453
stood	-4454
▁Prot	-4455
ground	-4456
▁Taliban	-4457
▁purpose	-4458
▁resource	-4459
▁strengthening	-4460
asc	-4461
▁Fore	-4462
▁dial	-4463
▁language	-4464
inks	-4465
atisf	-4466
▁heavy	-4467
stitute	-4468
uations	-4469
▁confron	-4470
▁pension	-4471
▁turning	-4472
▁accepted	-4473
▁Venezuela	-4474
Euro	-4475
resp	-4476
▁parent	-4477
▁symbol	-4478
▁undert	-4479
▁related	-4480
▁presence	-4481
reme	-4482
▁wis	-4483
▁lend	-4484
▁dream	-4485
▁elite	-4486
▁taxpay	-4487
▁dictators	-4488
▁perceived	-4489
6.	-4490
▁20%	-4491
▁compe	-4492
▁looks	-4493
▁toler	-4494
▁Health	-4495
▁supporting	-4496
▁counterpart	-4497
▁demonstrated	-4498
leb	-4499
cons	-4500
▁chem	-4501
▁assume	-4502
▁divided	-4503
▁condition	-4504
▁described	-4505
▁determined	-4506
▁discussion	-4507
▁represents	-4508
▁economically	-4509
ager	-4510
usal	-4511
▁explan	-4512
▁obstac	-4513
▁preced	-4514
▁remind	-4515
▁peripher	-4516
▁willingness	-4517
acerb	-4518
orpor	-4519
▁foot	-4520
▁Every	-4521
▁knows	-4522
▁shock	-4523
▁youth	-4524
▁relevant	-4525
▁temporary	-4526
▁equivalent	-4527
▁institution	-4528
che	-4529
ancy	-4530
imir	-4531
ading	-4532
▁flaw	-4533
▁northern	-4534
▁liberalization	-4535
fin	-4536
SEAN	-4537
▁got	-4538
▁ASEAN	-4539
▁review	-4540
▁collaps	-4541
ibilities	-4542
▁Vladimir	-4543
▁promoting	-4544
▁dramatically	-4545
eda	-4546
▁17	-4547
fort	-4548
agers	-4549
luding	-4550
▁online	-4551
▁relief	-4552
bre	-4553
licit	-4554
▁Chile	-4555
▁Count	-4556
▁fuels	-4557
▁equally	-4558
▁pursuing	-4559
igor	-4560
▁fil	-4561
heast	-4562
▁Here	-4563
▁bene	-4564
stream	-4565
▁stead	-4566
▁August	-4567
▁deeper	-4568
▁exacerb	-4569
emen	-4570
▁brut	-4571
Europe	-4572
▁criticism	-4573
▁expanding	-4574
▁Me	-4575
irth	-4576
▁ric	-4577
class	-4578
first	-4579
▁east	-4580
▁crimes	-4581
ographic	-4582
▁although	-4583
▁contributed	-4584
let	-4585
▁She	-4586
count	-4587
▁Bang	-4588
▁Paul	-4589
▁Port	-4590
▁uncon	-4591
▁greenh	-4592
▁coordin	-4593
▁technical	-4594
▁compromise	-4595
▁$3	-4596
▁conver	-4597
▁consist	-4598
▁defined	-4599
▁players	-4600
▁annually	-4601
onom	-4602
▁gained	-4603
▁summer	-4604
▁twenty	-4605
▁trouble	-4606
▁starting	-4607
bled	-4608
▁hours	-4609
▁interven	-4610
uty	-4611
▁Ky	-4612
▁bold	-4613
▁exit	-4614
▁solve	-4615
▁losing	-4616
▁temper	-4617
▁figures	-4618
▁possibly	-4619
▁delay	-4620
▁resil	-4621
▁opening	-4622
▁Palestine	-4623
aeda	-4624
appe	-4625
erous	-4626
onent	-4627
▁Shia	-4628
▁none	-4629
INGTON	-4630
▁begun	-4631
▁nomin	-4632
▁exactly	-4633
▁dramatic	-4634
▁greenhouse	-4635
8,	-4636
urch	-4637
adays	-4638
level	-4639
iences	-4640
▁Colomb	-4641
▁closely	-4642
▁surprise	-4643
▁HIV	-4644
illeg	-4645
▁Constit	-4646
▁religion	-4647
▁necessarily	-4648
▁transparency	-4649
ASH	-4650
lihood	-4651
▁showed	-4652
▁processes	-4653
▁parliamentary	-4654
ias	-4655
▁tact	-4656
▁Jewish	-4657
▁modest	-4658
▁collabor	-4659
▁extremely	-4660
ift	-4661
ingu	-4662
▁Cub	-4663
▁mix	-4664
ional	-4665
▁Nobel	-4666
▁issued	-4667
▁command	-4668
▁observers	-4669
▁encouraging	-4670
rs	-4671
iny	-4672
▁Ne	-4673
ster	-4674
▁trip	-4675
▁faith	-4676
▁tempt	-4677
▁However	-4678
▁playing	-4679
▁Fortunately	-4680
IC	-4681
▁Gulf	-4682
▁WASH	-4683
artment	-4684
▁distin	-4685
▁Depression	-4686
▁territorial	-4687
▁arrangements	-4688
▁quantitative	-4689
pril	-4690
ordan	-4691
▁grown	-4692
▁partner	-4693
▁legitimate	-4694
▁requirements	-4695
▁Bal	-4696
▁sea	-4697
▁kept	-4698
▁critics	-4699
▁published	-4700
yl	-4701
ded	-4702
llor	-4703
▁ideal	-4704
▁gender	-4705
▁retire	-4706
security	-4707
▁regular	-4708
▁reinfor	-4709
▁civilian	-4710
▁WASHINGTON	-4711
anish	-4712
▁feed	-4713
contro	-4714
▁chief	-4715
▁earth	-4716
▁illeg	-4717
▁healthy	-4718
▁perfect	-4719
▁billions	-4720
gu	-4721
comm	-4722
▁Act	-4723
▁girls	-4724
▁shocks	-4725
▁happens	-4726
▁opposite	-4727
▁priorities	-4728
▁structures	-4729
trade	-4730
▁signed	-4731
▁discipl	-4732
▁reported	-4733
▁employees	-4734
▁producers	-4735
▁unsustainable	-4736
mad	-4737
eron	-4738
ires	-4739
▁sto	-4740
▁fate	-4741
▁lear	-4742
overed	-4743
▁Policy	-4744
▁keeping	-4745
▁universities	-4746
▁2%	-4747
▁tack	-4748
iberal	-4749
▁added	-4750
▁monop	-4751
▁paper	-4752
▁signs	-4753
▁Jordan	-4754
▁mandate	-4755
▁terrorists	-4756
ffic	-4757
▁saw	-4758
▁fost	-4759
▁bottom	-4760
ventions	-4761
▁putting	-4762
▁learning	-4763
▁ambitious	-4764
▁humanitarian	-4765
iot	-4766
▁bloc	-4767
▁grand	-4768
flation	-4769
▁arrest	-4770
▁moderate	-4771
▁understood	-4772
CS	-4773
enty	-4774
▁2015	-4775
▁trib	-4776
▁April	-4777
▁trigger	-4778
▁achieving	-4779
▁constraints	-4780
▁Cy	-4781
arsh	-4782
▁203	-4783
chers	-4784
▁writ	-4785
aining	-4786
▁survival	-4787
axim	-4788
orient	-4789
▁fewer	-4790
▁rival	-4791
▁urgent	-4792
▁intended	-4793
▁incentive	-4794
&#160;&#160;	-4795
▁nationalist	-4796
ana	-4797
▁race	-4798
▁confir	-4799
▁search	-4800
▁interpret	-4801
▁remaining	-4802
ife	-4803
▁Rom	-4804
▁Sil	-4805
lines	-4806
icious	-4807
▁Franc	-4808
▁moved	-4809
▁mutual	-4810
▁Italian	-4811
▁promising	-4812
▁recognition	-4813
▁Mc	-4814
acing	-4815
▁speak	-4816
▁emerge	-4817
▁except	-4818
national	-4819
▁centuries	-4820
▁purchases	-4821
▁remarkable	-4822
▁volatility	-4823
oms	-4824
inian	-4825
▁Iraqi	-4826
▁frust	-4827
▁homes	-4828
▁offset	-4829
▁surely	-4830
▁historic	-4831
▁included	-4832
▁addressed	-4833
ECD	-4834
irect	-4835
rence	-4836
▁shap	-4837
itness	-4838
▁reluct	-4839
▁weight	-4840
▁criminal	-4841
▁inadequate	-4842
▁40%	-4843
▁sus	-4844
ailed	-4845
▁Hung	-4846
▁fixed	-4847
▁Chance	-4848
▁settlement	-4849
unis	-4850
arely	-4851
▁docu	-4852
▁plants	-4853
▁stress	-4854
▁establishing	-4855
pet	-4856
with	-4857
▁Reg	-4858
▁sort	-4859
▁Yemen	-4860
▁compr	-4861
▁parad	-4862
▁neighbor	-4863
▁gradually	-4864
▁pollution	-4865
▁implementation	-4866
yal	-4867
▁3.	-4868
▁cha	-4869
ijing	-4870
iling	-4871
carbon	-4872
mented	-4873
▁2011,	-4874
▁launch	-4875
▁capable	-4876
▁reports	-4877
su	-4878
▁($	-4879
▁30%	-4880
▁says	-4881
▁wave	-4882
▁1980’	-4883
▁2012,	-4884
▁applic	-4885
▁embrace	-4886
▁genetic	-4887
▁adequate	-4888
▁starters	-4889
▁proportion	-4890
▁securities	-4891
▁surprising	-4892
▁Governments	-4893
▁25	-4894
ested	-4895
▁Plan	-4896
itably	-4897
lected	-4898
▁Tunis	-4899
▁celeb	-4900
▁diagn	-4901
▁tough	-4902
▁track	-4903
aration	-4904
▁stance	-4905
▁entrepreneurs	-4906
ahu	-4907
era	-4908
ihad	-4909
▁Any	-4910
▁thr	-4911
pring	-4912
▁OECD	-4913
▁exam	-4914
▁votes	-4915
▁incomp	-4916
▁Foreign	-4917
▁marginal	-4918
▁Committee	-4919
▁essentially	-4920
EO	-4921
zb	-4922
ole	-4923
udd	-4924
▁PA	-4925
▁evol	-4926
▁Canada	-4927
▁threatened	-4928
▁educational	-4929
▁wake	-4930
▁Never	-4931
▁fueled	-4932
▁reward	-4933
▁served	-4934
▁Georgia	-4935
▁failing	-4936
▁reserve	-4937
▁eliminate	-4938
adow	-4939
▁Sud	-4940
odies	-4941
▁Cont	-4942
▁Once	-4943
▁risky	-4944
▁scope	-4945
uilding	-4946
▁costly	-4947
▁paying	-4948
▁Further	-4949
▁setting	-4950
▁explicit	-4951
▁pressures	-4952
▁restrictions	-4953
rid	-4954
▁Portug	-4955
▁planning	-4956
▁suffered	-4957
▁underpin	-4958
▁Em	-4959
ompl	-4960
igned	-4961
▁crop	-4962
▁grew	-4963
▁dialogue	-4964
NA	-4965
▁fal	-4966
anyahu	-4967
country	-4968
ospital	-4969
▁condem	-4970
▁Netanyahu	-4971
▁introduced	-4972
▁stagnation	-4973
ained	-4974
▁1980	-4975
▁opposed	-4976
▁emergence	-4977
▁primarily	-4978
ari	-4979
aily	-4980
▁Mac	-4981
reement	-4982
▁Beijing	-4983
▁England	-4984
▁imagine	-4985
▁solidarity	-4986
▁arch	-4987
▁brok	-4988
▁advis	-4989
▁disag	-4990
▁revol	-4991
▁legacy	-4992
▁mission	-4993
▁identify	-4994
▁rejected	-4995
▁regardless	-4996
hab	-4997
▁13	-4998
oubt	-4999
port	-5000
rote	-5001
▁Bel	-5002
▁anx	-5003
ultane	-5004
▁sales	-5005
▁series	-5006
▁aggressive	-5007
mon	-5008
-201	-5009
bank	-5010
▁Ben	-5011
▁shr	-5012
▁phen	-5013
▁qual	-5014
▁board	-5015
zbollah	-5016
▁pushed	-5017
▁Cameron	-5018
▁carried	-5019
▁reaching	-5020
▁approaches	-5021
pted	-5022
erved	-5023
▁deval	-5024
▁enact	-5025
▁engagement	-5026
▁innovative	-5027
▁lay	-5028
▁sac	-5029
▁Serb	-5030
▁Wall	-5031
▁cyber	-5032
▁engaged	-5033
▁network	-5034
▁practical	-5035
▁taxpayers	-5036
▁controvers	-5037
▁repeatedly	-5038
bas	-5039
rap	-5040
▁Ah	-5041
▁Unt	-5042
▁Ange	-5043
▁Still	-5044
▁maxim	-5045
isingly	-5046
▁corrupt	-5047
▁enhance	-5048
▁exposed	-5049
▁contracts	-5050
gic	-5051
▁BER	-5052
▁father	-5053
▁mother	-5054
▁compete	-5055
ordination	-5056
▁capabilities	-5057
cean	-5058
▁dri	-5059
▁lob	-5060
▁cong	-5061
▁pret	-5062
▁2013,	-5063
▁Human	-5064
▁wider	-5065
▁finding	-5066
▁strongly	-5067
▁targeted	-5068
▁transfers	-5069
Is	-5070
▁David	-5071
▁express	-5072
▁someone	-5073
ineteenth	-5074
▁sentiment	-5075
▁Chancellor	-5076
▁ideological	-5077
GO	-5078
anied	-5079
▁2011	-5080
▁prohib	-5081
▁Nigeria	-5082
▁persist	-5083
▁phenomen	-5084
▁Hezbollah	-5085
▁sustainability	-5086
▁IS	-5087
▁eru	-5088
▁ver	-5089
▁crow	-5090
▁irre	-5091
airman	-5092
estern	-5093
inding	-5094
▁birth	-5095
▁blood	-5096
▁newsp	-5097
▁telev	-5098
nership	-5099
ustrial	-5100
▁prosec	-5101
▁calling	-5102
▁proceed	-5103
▁conducted	-5104
▁evolution	-5105
▁11	-5106
arak	-5107
▁Naz	-5108
apore	-5109
iders	-5110
▁died	-5111
▁2009,	-5112
▁apply	-5113
▁wrote	-5114
▁ignore	-5115
▁Investment	-5116
▁integrated	-5117
ownt	-5118
▁via	-5119
using	-5120
▁settle	-5121
▁deterior	-5122
▁investing	-5123
▁protecting	-5124
▁undermining	-5125
US	-5126
amb	-5127
ebru	-5128
▁fem	-5129
▁vill	-5130
▁multi	-5131
Pacific	-5132
cession	-5133
ebruary	-5134
▁Growth	-5135
▁contem	-5136
▁looking	-5137
▁pushing	-5138
▁simultane	-5139
▁previously	-5140
▁obligations	-5141
▁transactions	-5142
▁sup	-5143
▁veh	-5144
▁downt	-5145
▁reass	-5146
▁humans	-5147
▁philos	-5148
▁Until	-5149
through	-5150
▁benefic	-5151
▁enabled	-5152
▁Israelis	-5153
▁standing	-5154
▁concluded	-5155
▁suggested	-5156
ola	-5157
rew	-5158
▁1%	-5159
free	-5160
▁woman	-5161
▁Beyond	-5162
ffective	-5163
▁failures	-5164
▁Singapore	-5165
▁appreciation	-5166
rog	-5167
▁die	-5168
ether	-5169
icles	-5170
▁wors	-5171
▁delib	-5172
▁Recent	-5173
▁slight	-5174
▁package	-5175
▁February	-5176
▁boosting	-5177
▁attractive	-5178
▁accompanied	-5179
2.	-5180
view	-5181
▁emot	-5182
▁norms	-5183
▁resear	-5184
▁chemical	-5185
▁equality	-5186
▁preventing	-5187
20	-5188
tax	-5189
ches	-5190
▁BRI	-5191
▁quo	-5192
being	-5193
uable	-5194
▁felt	-5195
▁black	-5196
▁linked	-5197
▁supplies	-5198
▁Christian	-5199
▁substantially	-5200
osn	-5201
uit	-5202
▁Car	-5203
ament	-5204
rowing	-5205
▁alike	-5206
▁defin	-5207
▁newly	-5208
appoint	-5209
▁latter	-5210
▁elements	-5211
egu	-5212
eth	-5213
debt	-5214
▁fat	-5215
▁wid	-5216
▁accompl	-5217
▁budgets	-5218
▁destabil	-5219
▁arguments	-5220
▁completely	-5221
▁withdrawal	-5222
ovo	-5223
▁Mor	-5224
ecess	-5225
▁Asse	-5226
▁turm	-5227
▁allows	-5228
▁secret	-5229
▁content	-5230
▁turmoil	-5231
▁welcome	-5232
▁Egyptian	-5233
▁regarded	-5234
▁predecess	-5235
▁reasonable	-5236
▁Nonetheless	-5237
son	-5238
idel	-5239
inced	-5240
▁crime	-5241
agement	-5242
▁satisf	-5243
American	-5244
▁bubbles	-5245
▁survive	-5246
▁Pakistani	-5247
▁isolation	-5248
DR	-5249
▁QE	-5250
border	-5251
▁belie	-5252
▁aspect	-5253
▁rating	-5254
▁notably	-5255
▁realize	-5256
ressional	-5257
▁Countries	-5258
how	-5259
▁Mos	-5260
▁bol	-5261
▁2014,	-5262
▁logic	-5263
▁charge	-5264
▁operate	-5265
▁hospital	-5266
▁emergency	-5267
mosp	-5268
ping	-5269
sels	-5270
▁tim	-5271
▁Jews	-5272
▁barg	-5273
ivered	-5274
▁polls	-5275
▁smart	-5276
▁weaker	-5277
▁adverse	-5278
▁discover	-5279
▁extraordin	-5280
▁Partnership	-5281
cks	-5282
ume	-5283
ifth	-5284
▁Kos	-5285
▁nav	-5286
▁peak	-5287
function	-5288
▁disputes	-5289
▁reaction	-5290
▁bankruptcy	-5291
▁Aut	-5292
ilipp	-5293
crisis	-5294
▁2015,	-5295
▁apart	-5296
▁enabl	-5297
▁discrimin	-5298
▁accounting	-5299
▁40	-5300
▁Os	-5301
amed	-5302
iled	-5303
▁tariff	-5304
▁autonom	-5305
▁Assembly	-5306
▁invasion	-5307
▁released	-5308
▁renewable	-5309
▁effectiveness	-5310
9.	-5311
TA	-5312
aded	-5313
hers	-5314
known	-5315
▁rose	-5316
▁colon	-5317
▁doesn	-5318
▁holds	-5319
▁unity	-5320
oriented	-5321
▁claimed	-5322
▁expense	-5323
▁killing	-5324
45	-5325
ns	-5326
book	-5327
▁Sup	-5328
ipped	-5329
▁2014	-5330
▁tour	-5331
▁Again	-5332
▁absol	-5333
▁atmosp	-5334
utrition	-5335
▁Philipp	-5336
▁disappe	-5337
▁minimum	-5338
▁bur	-5339
▁fort	-5340
ubarak	-5341
ogether	-5342
theless	-5343
▁Russians	-5344
▁downturn	-5345
▁contributions	-5346
ragm	-5347
icing	-5348
arters	-5349
clical	-5350
▁aging	-5351
ishment	-5352
▁spirit	-5353
▁malaria	-5354
▁advances	-5355
▁managers	-5356
▁experiment	-5357
▁dictatorship	-5358
gas	-5359
▁Ant	-5360
▁TPP	-5361
▁waste	-5362
▁Senate	-5363
▁creates	-5364
▁delivered	-5365
▁seemingly	-5366
7.	-5367
ador	-5368
lete	-5369
▁magn	-5370
▁scar	-5371
▁jihad	-5372
▁intent	-5373
▁initial	-5374
▁operating	-5375
▁explanation	-5376
▁flexibility	-5377
▁professional	-5378
dr	-5379
hi	-5380
rue	-5381
▁Ear	-5382
ashed	-5383
iforn	-5384
▁2013	-5385
▁Summ	-5386
▁clin	-5387
▁liter	-5388
ulating	-5389
▁Sweden	-5390
▁divers	-5391
▁perpet	-5392
▁Supreme	-5393
▁anticip	-5394
▁attempts	-5395
▁humanity	-5396
▁publicly	-5397
▁surround	-5398
▁nineteenth	-5399
▁instruments	-5400
ux	-5401
▁ran	-5402
▁tow	-5403
▁daily	-5404
▁placed	-5405
▁Defense	-5406
▁witness	-5407
▁conclusion	-5408
▁consistent	-5409
der	-5410
▁60%	-5411
lades	-5412
▁alle	-5413
▁champ	-5414
▁gives	-5415
oubtedly	-5416
▁Californ	-5417
▁declined	-5418
▁examples	-5419
▁ideology	-5420
▁shareholders	-5421
▁·	-5422
isp	-5423
ables	-5424
▁iron	-5425
▁Spring	-5426
▁harder	-5427
▁Mubarak	-5428
▁Banglades	-5429
▁negotiating	-5430
▁El	-5431
▁Sin	-5432
▁swe	-5433
▁micro	-5434
▁tests	-5435
▁appeal	-5436
▁libert	-5437
▁proced	-5438
▁comment	-5439
▁inflows	-5440
▁Portugal	-5441
▁soldiers	-5442
▁convinced	-5443
▁depression	-5444
duc	-5445
osis	-5446
▁brain	-5447
▁staff	-5448
▁closed	-5449
▁slowly	-5450
▁dismiss	-5451
▁announce	-5452
▁nowadays	-5453
▁surpluses	-5454
▁Furthermore	-5455
▁demonstrate	-5456
▁coordination	-5457
aust	-5458
▁Lead	-5459
▁ball	-5460
▁burn	-5461
▁skept	-5462
▁Street	-5463
▁saying	-5464
▁distort	-5465
▁offering	-5466
▁inevitably	-5467
ma	-5468
▁actual	-5469
▁escape	-5470
▁safegu	-5471
ifically	-5472
▁species	-5473
▁computer	-5474
▁negotiate	-5475
▁implementing	-5476
ami	-5477
imb	-5478
▁fra	-5479
▁born	-5480
▁sole	-5481
▁wish	-5482
▁word	-5483
▁Sudan	-5484
▁pharm	-5485
▁south	-5486
▁table	-5487
▁backed	-5488
▁barely	-5489
▁strike	-5490
European	-5491
▁parents	-5492
▁earnings	-5493
CC	-5494
▁ple	-5495
▁solar	-5496
▁mobile	-5497
▁weaken	-5498
ophistic	-5499
▁prolong	-5500
▁dependent	-5501
▁executive	-5502
▁devastating	-5503
▁discussions	-5504
▁transparent	-5505
▁successfully	-5506
▁16	-5507
oned	-5508
▁knew	-5509
depend	-5510
istrib	-5511
▁Colombia	-5512
▁exercise	-5513
▁threaten	-5514
▁producing	-5515
▁statement	-5516
▁subsequent	-5517
▁60	-5518
ahar	-5519
▁vac	-5520
▁plant	-5521
▁joined	-5522
exchange	-5523
▁illegal	-5524
▁mortgage	-5525
▁ambitions	-5526
▁demanding	-5527
▁generated	-5528
▁television	-5529
▁z	-5530
ius	-5531
uff	-5532
fare	-5533
▁Add	-5534
▁obt	-5535
▁Cypr	-5536
▁stre	-5537
▁viable	-5538
▁wonder	-5539
▁reverse	-5540
▁sharing	-5541
▁wealthy	-5542
▁enabling	-5543
▁resulted	-5544
▁researchers	-5545
▁undoubtedly	-5546
rack	-5547
what	-5548
▁Peace	-5549
connect	-5550
ulative	-5551
▁variety	-5552
▁expressed	-5553
▁successor	-5554
▁occupation	-5555
▁contribution	-5556
DGs	-5557
que	-5558
▁alt	-5559
▁hot	-5560
unger	-5561
▁Bern	-5562
▁Prog	-5563
commun	-5564
urally	-5565
▁alarm	-5566
▁aspir	-5567
▁pragm	-5568
▁users	-5569
▁voted	-5570
▁resort	-5571
▁nominal	-5572
▁expanded	-5573
▁provision	-5574
▁California	-5575
▁interventions	-5576
rete	-5577
▁Yes	-5578
▁index	-5579
▁Malays	-5580
▁ending	-5581
▁chronic	-5582
▁decisive	-5583
▁customers	-5584
▁sophistic	-5585
isan	-5586
otic	-5587
size	-5588
agues	-5589
▁text	-5590
▁White	-5591
osition	-5592
▁attrib	-5593
▁combat	-5594
▁contrad	-5595
▁fragile	-5596
▁renewed	-5597
▁reconcil	-5598
▁replaced	-5599
▁periphery	-5600
▁demographic	-5601
▁counterparts	-5602
▁Pen	-5603
pected	-5604
utical	-5605
▁rebal	-5606
ocratic	-5607
▁Energy	-5608
▁Kosovo	-5609
▁conven	-5610
▁Tunisia	-5611
▁Whether	-5612
▁painful	-5613
▁returned	-5614
▁revealed	-5615
bit	-5616
agan	-5617
body	-5618
odox	-5619
▁lag	-5620
ilemm	-5621
▁Much	-5622
▁nine	-5623
▁badly	-5624
▁speed	-5625
▁passed	-5626
▁voting	-5627
▁Spanish	-5628
including	-5629
▁happening	-5630
▁od	-5631
alin	-5632
▁80%	-5633
▁2001,	-5634
▁retail	-5635
▁rulers	-5636
▁centers	-5637
▁flexible	-5638
▁Department	-5639
▁fundamentally	-5640
▁relationships	-5641
9%	-5642
oes	-5643
▁anc	-5644
gered	-5645
rating	-5646
▁leaves	-5647
▁narrative	-5648
▁5%	-5649
gment	-5650
ivate	-5651
illenn	-5652
iments	-5653
▁equip	-5654
▁buying	-5655
▁dispute	-5656
▁stories	-5657
▁frequently	-5658
▁improvement	-5659
AR	-5660
zz	-5661
GDP	-5662
▁wa	-5663
agen	-5664
rees	-5665
vard	-5666
▁ded	-5667
ellow	-5668
▁ally	-5669
▁fert	-5670
resent	-5671
▁coast	-5672
▁deals	-5673
▁lacks	-5674
▁posed	-5675
▁rarely	-5676
▁sheets	-5677
veraging	-5678
▁channel	-5679
▁diverse	-5680
▁elector	-5681
▁refused	-5682
▁momentum	-5683
▁concerning	-5684
▁threatening	-5685
CE	-5686
▁$1.	-5687
itten	-5688
▁High	-5689
ailand	-5690
▁write	-5691
product	-5692
▁evident	-5693
▁balanced	-5694
▁globally	-5695
▁systemic	-5696
▁Nevertheless	-5697
na	-5698
RIS	-5699
afi	-5700
▁aud	-5701
▁Blair	-5702
▁surge	-5703
▁Nether	-5704
▁unions	-5705
▁yields	-5706
▁applied	-5707
▁unwilling	-5708
▁weakening	-5709
▁guarantees	-5710
▁Netherlands	-5711
▁participants	-5712
▁accountability	-5713
tt	-5714
ctr	-5715
▁$4	-5716
adic	-5717
resh	-5718
▁lie	-5719
▁pie	-5720
anmar	-5721
▁eyes	-5722
▁phase	-5723
▁courts	-5724
▁survey	-5725
▁warned	-5726
reaching	-5727
▁downward	-5728
▁mistakes	-5729
▁civilians	-5730
▁university	-5731
▁acting	-5732
▁transm	-5733
▁wisdom	-5734
▁Thailand	-5735
▁absolute	-5736
▁academic	-5737
▁taxation	-5738
▁borrowers	-5739
▁encouraged	-5740
▁mainstream	-5741
▁struggling	-5742
▁journalists	-5743
iev	-5744
▁Dut	-5745
▁Sub	-5746
▁ast	-5747
eping	-5748
▁reck	-5749
▁reput	-5750
▁ruled	-5751
▁twice	-5752
▁Unlike	-5753
▁rescue	-5754
▁sexual	-5755
▁dominant	-5756
▁weakened	-5757
▁facilities	-5758
▁innovations	-5759
▁simultaneously	-5760
...	-5761
▁Qaeda	-5762
▁entit	-5763
▁Germans	-5764
▁charges	-5765
intensive	-5766
▁extended	-5767
▁disappoint	-5768
▁Philippines	-5769
▁alternatives	-5770
▁compensation	-5771
8.	-5772
?”	-5773
AD	-5774
▁Cop	-5775
ommod	-5776
▁Hist	-5777
▁north	-5778
▁brutal	-5779
▁divide	-5780
▁proven	-5781
▁pursued	-5782
▁warning	-5783
aceutical	-5784
▁managing	-5785
▁remember	-5786
▁valuable	-5787
▁acknowled	-5788
▁responses	-5789
▁assessment	-5790
▁imperative	-5791
▁supposedly	-5792
oon	-5793
▁dim	-5794
addam	-5795
sight	-5796
▁kinds	-5797
▁raises	-5798
▁transl	-5799
▁version	-5800
▁imperial	-5801
▁similarly	-5802
▁Brotherhood	-5803
rant	-5804
▁Burm	-5805
igrant	-5806
termath	-5807
▁Market	-5808
▁volunt	-5809
▁debates	-5810
▁shifting	-5811
▁aftermath	-5812
▁retirement	-5813
▁consolidation	-5814
ao	-5815
aut	-5816
▁14	-5817
▁sem	-5818
point	-5819
▁Spec	-5820
▁Kenya	-5821
▁Rober	-5822
▁flood	-5823
▁helps	-5824
▁image	-5825
▁shares	-5826
▁methods	-5827
▁discoura	-5828
▁educated	-5829
▁displaced	-5830
▁Bangladesh	-5831
▁complicated	-5832
IA	-5833
rum	-5834
▁hege	-5835
▁sacr	-5836
▁decent	-5837
▁extend	-5838
▁Myanmar	-5839
▁missile	-5840
▁pointed	-5841
▁stimulate	-5842
▁Sm	-5843
▁aw	-5844
▁25%	-5845
▁Are	-5846
▁Modi	-5847
▁cast	-5848
ashion	-5849
▁diver	-5850
▁usual	-5851
▁Rights	-5852
▁absorb	-5853
▁fourth	-5854
interest	-5855
▁streets	-5856
▁dominated	-5857
oto	-5858
ura	-5859
▁App	-5860
▁Eth	-5861
oning	-5862
▁accur	-5863
▁heads	-5864
▁polar	-5865
▁advice	-5866
▁multiple	-5867
▁Institute	-5868
▁Nic	-5869
▁bra	-5870
▁zone	-5871
thirds	-5872
▁1970’	-5873
▁print	-5874
▁exclud	-5875
▁trials	-5876
outheast	-5877
▁stopped	-5878
▁weather	-5879
▁worried	-5880
▁distingu	-5881
▁ultimate	-5882
▁atmosphere	-5883
osy	-5884
soc	-5885
▁$5	-5886
oted	-5887
▁2005	-5888
▁Free	-5889
▁2008.	-5890
▁adult	-5891
▁facts	-5892
▁fails	-5893
▁guide	-5894
▁bodies	-5895
▁Pacific	-5896
▁profess	-5897
▁showing	-5898
▁accommod	-5899
▁annivers	-5900
▁approval	-5901
▁purchase	-5902
▁breakthrough	-5903
lock	-5904
▁escal	-5905
▁united	-5906
▁broadly	-5907
▁comfort	-5908
▁damaging	-5909
▁redistrib	-5910
▁background	-5911
▁purchasing	-5912
▁strengthened	-5913
II	-5914
now	-5915
▁hab	-5916
bling	-5917
inded	-5918
integ	-5919
▁Bill	-5920
▁Four	-5921
rights	-5922
▁Abbas	-5923
▁chaos	-5924
▁recip	-5925
▁bigger	-5926
▁friend	-5927
▁marked	-5928
▁ethical	-5929
▁properly	-5930
▁component	-5931
▁ownership	-5932
▁progressive	-5933
▁consistently	-5934
mpt	-5935
▁3%	-5936
▁Mu	-5937
apers	-5938
▁Holl	-5939
▁cars	-5940
▁dark	-5941
▁aside	-5942
▁Angela	-5943
▁Church	-5944
▁brings	-5945
▁cooper	-5946
▁eastern	-5947
▁populism	-5948
▁triggered	-5949
▁consequence	-5950
▁participate	-5951
▁confrontation	-5952
▁,	-5953
ips	-5954
▁70%	-5955
▁Jer	-5956
▁Cuba	-5957
▁aims	-5958
ptions	-5959
▁2007,	-5960
▁voice	-5961
▁white	-5962
illance	-5963
▁Hungary	-5964
▁diversity	-5965
▁succeeded	-5966
▁facilitate	-5967
▁minorities	-5968
cker	-5969
work	-5970
▁Mah	-5971
style	-5972
▁pict	-5973
▁runs	-5974
astrop	-5975
▁argues	-5976
▁alleged	-5977
▁dealing	-5978
▁fulfill	-5979
▁concrete	-5980
▁reliable	-5981
▁Cz	-5982
▁lab	-5983
▁brid	-5984
▁enth	-5985
▁hero	-5986
▁rout	-5987
▁send	-5988
▁uses	-5989
osystem	-5990
▁gather	-5991
▁manner	-5992
▁opened	-5993
▁thanks	-5994
▁original	-5995
▁patterns	-5996
▁carefully	-5997
▁colleagues	-5998
▁expenditures	-5999
▁overwhelming	-6000
▁representatives	-6001
Es	-6002
▁4.	-6003
▁Bol	-6004
agger	-6005
▁forg	-6006
▁shut	-6007
▁false	-6008
▁loyal	-6009
▁Change	-6010
▁Saddam	-6011
▁mobility	-6012
▁separate	-6013
▁materials	-6014
▁foundation	-6015
▁phenomenon	-6016
▁considerably	-6017
▁revolutionary	-6018
▁pharmaceutical	-6019
▁Law	-6020
enced	-6021
▁depart	-6022
▁hunger	-6023
▁mental	-6024
▁Justice	-6025
▁treated	-6026
▁appeared	-6027
▁benefited	-6028
▁inclusion	-6029
▁discipline	-6030
▁depreciation	-6031
cow	-6032
olar	-6033
▁pet	-6034
democ	-6035
efore	-6036
icial	-6037
itect	-6038
▁epid	-6039
00,000	-6040
erving	-6041
establ	-6042
ounded	-6043
▁types	-6044
ressing	-6045
▁stocks	-6046
▁capture	-6047
▁presidents	-6048
▁undermined	-6049
▁acknowledge	-6050
ball	-6051
ocol	-6052
pper	-6053
▁Bash	-6054
▁gets	-6055
asters	-6056
ranean	-6057
▁Dutch	-6058
▁Roman	-6059
▁abuse	-6060
▁storm	-6061
▁Agency	-6062
▁Robert	-6063
▁notion	-6064
▁shadow	-6065
▁traged	-6066
▁Holland	-6067
▁coverage	-6068
▁identified	-6069
▁prosperous	-6070
▁engineering	-6071
omal	-6072
pass	-6073
▁CEO	-6074
▁Pet	-6075
▁blam	-6076
▁pure	-6077
▁wall	-6078
ection	-6079
irable	-6080
▁measured	-6081
▁catastrop	-6082
▁apparently	-6083
▁statements	-6084
▁anniversary	-6085
▁challenging	-6086
jad	-6087
oked	-6088
▁Den	-6089
▁Moh	-6090
▁mus	-6091
▁sect	-6092
estate	-6093
▁drawn	-6094
▁Harvard	-6095
▁justify	-6096
▁somewhat	-6097
▁extremists	-6098
ugg	-6099
iver	-6100
lish	-6101
ruit	-6102
▁fle	-6103
▁Hill	-6104
inated	-6105
▁Berlin	-6106
▁unders	-6107
▁disorder	-6108
▁Agreement	-6109
▁architect	-6110
▁equipment	-6111
▁initially	-6112
▁sophisticated	-6113
BO	-6114
oor	-6115
oles	-6116
orsi	-6117
▁Sal	-6118
▁wait	-6119
growth	-6120
▁PARIS	-6121
iterranean	-6122
▁recommend	-6123
▁accelerate	-6124
▁maintained	-6125
▁meaningful	-6126
▁transformed	-6127
▁policymaking	-6128
oods	-6129
▁estate	-6130
▁plenty	-6131
▁Conserv	-6132
▁assumed	-6133
▁forcing	-6134
▁gaining	-6135
▁greatly	-6136
▁focusing	-6137
▁collapsed	-6138
▁advantages	-6139
▁controlled	-6140
she	-6141
xic	-6142
▁Abd	-6143
▁Cur	-6144
▁Clear	-6145
▁Author	-6146
▁Moscow	-6147
▁strict	-6148
▁deposits	-6149
▁limiting	-6150
▁organized	-6151
▁impressive	-6152
▁negotiated	-6153
▁repression	-6154
ley	-6155
onia	-6156
prof	-6157
▁Let	-6158
▁nom	-6159
▁tri	-6160
iking	-6161
rency	-6162
▁2006	-6163
health	-6164
▁cells	-6165
▁fresh	-6166
▁overh	-6167
enhagen	-6168
▁island	-6169
▁estimate	-6170
▁governing	-6171
▁responded	-6172
▁characterized	-6173
ika	-6174
▁Cr	-6175
▁je	-6176
iced	-6177
price	-6178
▁Conf	-6179
itudes	-6180
ussels	-6181
▁minds	-6182
▁night	-6183
▁invested	-6184
▁unilateral	-6185
▁surprisingly	-6186
▁Mediterranean	-6187
lor	-6188
uan	-6189
▁doz	-6190
▁desp	-6191
▁loan	-6192
▁wild	-6193
▁moves	-6194
▁Resear	-6195
▁chains	-6196
▁enthus	-6197
▁height	-6198
▁consult	-6199
▁grounds	-6200
▁dependence	-6201
▁neighboring	-6202
▁improvements	-6203
EA	-6204
olf	-6205
pan	-6206
stan	-6207
▁rig	-6208
idden	-6209
▁insu	-6210
▁prox	-6211
▁Morsi	-6212
develop	-6213
▁dilemm	-6214
▁donors	-6215
▁famous	-6216
▁scheme	-6217
▁believes	-6218
▁ecosystem	-6219
▁generating	-6220
▁Mao	-6221
▁2004	-6222
▁City	-6223
addafi	-6224
▁Among	-6225
▁antib	-6226
▁scand	-6227
▁doctors	-6228
▁ignored	-6229
▁monopoly	-6230
▁Political	-6231
▁workforce	-6232
▁Copenhagen	-6233
▁resilience	-6234
▁influential	-6235
AI	-6236
We	-6237
ett	-6238
▁Im	-6239
odes	-6240
soft	-6241
▁Inc	-6242
▁Lab	-6243
▁1970	-6244
▁None	-6245
▁drag	-6246
▁Forum	-6247
▁oppose	-6248
▁propag	-6249
▁gradual	-6250
▁selling	-6251
▁preserve	-6252
▁suddenly	-6253
▁unemployed	-6254
▁surveillance	-6255
Ass	-6256
orld	-6257
ylum	-6258
▁Mad	-6259
▁seas	-6260
▁unex	-6261
▁Public	-6262
▁retain	-6263
▁shifts	-6264
▁English	-6265
▁Through	-6266
▁emphasis	-6267
▁occasion	-6268
▁secondary	-6269
▁experiencing	-6270
▁extraordinary	-6271
kan	-6272
rig	-6273
China	-6274
chang	-6275
oples	-6276
▁suic	-6277
▁teac	-6278
▁noted	-6279
▁eradic	-6280
▁enemies	-6281
▁privile	-6282
▁vehicles	-6283
▁presented	-6284
▁threatens	-6285
▁involvement	-6286
▁partnerships	-6287
fol	-6288
osen	-6289
▁Ban	-6290
▁son	-6291
▁blow	-6292
▁tele	-6293
▁2015.	-6294
▁BRICS	-6295
▁Goals	-6296
▁sympt	-6297
▁caught	-6298
▁female	-6299
▁outbre	-6300
▁poorer	-6301
▁Malaysia	-6302
▁meetings	-6303
▁slightly	-6304
▁obstacles	-6305
▁insufficient	-6306
▁unconventional	-6307
);	-6308
iang	-6309
▁90%	-6310
▁Hit	-6311
▁Red	-6312
▁Who	-6313
Assad	-6314
claim	-6315
▁2016	-6316
▁True	-6317
▁eval	-6318
▁tort	-6319
lessly	-6320
▁heard	-6321
▁Brussels	-6322
▁construct	-6323
▁realistic	-6324
▁provisions	-6325
rity	-6326
▁hyp	-6327
ifies	-6328
driven	-6329
▁doctr	-6330
▁older	-6331
▁watch	-6332
▁attend	-6333
▁decreas	-6334
▁entered	-6335
▁fueling	-6336
▁pressing	-6337
▁Southeast	-6338
▁commission	-6339
▁discrimination	-6340
fe	-6341
ebt	-6342
▁Bet	-6343
▁Jin	-6344
▁fill	-6345
▁pill	-6346
▁prud	-6347
▁wise	-6348
gently	-6349
▁Czech	-6350
▁Reagan	-6351
▁backing	-6352
▁communism	-6353
▁attempting	-6354
▁persistent	-6355
▁inefficient	-6356
▁difficulties	-6357
ko	-6358
aus	-6359
ked	-6360
beit	-6361
eted	-6362
face	-6363
▁Her	-6364
cking	-6365
▁repay	-6366
respons	-6367
▁Should	-6368
▁overse	-6369
atlantic	-6370
▁Kurdish	-6371
▁ourselves	-6372
▁perception	-6373
ilib	-6374
▁Fat	-6375
▁Imp	-6376
essim	-6377
icism	-6378
opard	-6379
▁didn	-6380
▁unle	-6381
▁Somal	-6382
▁match	-6383
▁slower	-6384
▁routine	-6385
▁financed	-6386
▁sensible	-6387
▁manipulation	-6388
cut	-6389
vez	-6390
ateg	-6391
▁hed	-6392
ebted	-6393
ourse	-6394
▁Educ	-6395
▁links	-6396
▁artific	-6397
▁urgently	-6398
▁vaccines	-6399
▁activists	-6400
▁involving	-6401
▁mortgages	-6402
▁operation	-6403
▁predicted	-6404
▁regarding	-6405
▁indicators	-6406
▁liabilities	-6407
ein	-6408
roc	-6409
outs	-6410
unch	-6411
▁Big	-6412
▁Chá	-6413
▁spl	-6414
iliar	-6415
▁indu	-6416
▁pipe	-6417
▁Board	-6418
▁penal	-6419
▁asylum	-6420
▁Clearly	-6421
▁prepare	-6422
▁implicit	-6423
▁imposing	-6424
▁informal	-6425
▁straight	-6426
sur	-6427
indu	-6428
real	-6429
oided	-6430
▁pose	-6431
▁1930’	-6432
▁eager	-6433
▁postp	-6434
perform	-6435
▁Hitler	-6436
▁openly	-6437
▁presum	-6438
▁Nuclear	-6439
▁illness	-6440
▁rightly	-6441
inational	-6442
▁obviously	-6443
▁prolonged	-6444
▁Conference	-6445
▁compelling	-6446
▁Sustainable	-6447
▁functioning	-6448
▁internationally	-6449
▁Eb	-6450
▁Ir	-6451
▁AIDS	-6452
inejad	-6453
iously	-6454
▁risen	-6455
▁simpl	-6456
▁Before	-6457
▁broken	-6458
▁privat	-6459
▁talent	-6460
▁possess	-6461
▁constitu	-6462
▁severely	-6463
▁employers	-6464
▁intervene	-6465
▁reductions	-6466
▁statistics	-6467
▁protectionism	-6468
ima	-6469
len	-6470
och	-6471
▁Li	-6472
cost	-6473
omics	-6474
▁pick	-6475
iaries	-6476
▁Front	-6477
▁waters	-6478
▁avoided	-6479
▁careful	-6480
▁traffic	-6481
▁Atlantic	-6482
▁intention	-6483
▁achievement	-6484
yan	-6485
▁6.	-6486
▁Ric	-6487
▁hur	-6488
▁neo	-6489
emics	-6490
place	-6491
▁happy	-6492
▁refer	-6493
rations	-6494
▁Chávez	-6495
▁belong	-6496
▁explos	-6497
▁superv	-6498
▁patient	-6499
▁planned	-6500
▁spectac	-6501
▁outright	-6502
▁Authority	-6503
uls	-6504
▁1,	-6505
▁Art	-6506
▁Hol	-6507
▁gun	-6508
athol	-6509
▁sequ	-6510
▁star	-6511
▁2000,	-6512
▁Inter	-6513
▁arbit	-6514
▁inher	-6515
iations	-6516
▁Stalin	-6517
▁inside	-6518
▁spring	-6519
▁tackle	-6520
▁accused	-6521
▁picture	-6522
▁winning	-6523
▁features	-6524
▁Islamists	-6525
▁prominent	-6526
▁protected	-6527
▁reluctant	-6528
▁expression	-6529
NP	-6530
kin	-6531
sun	-6532
▁Ac	-6533
rors	-6534
▁192	-6535
▁Bas	-6536
Sahar	-6537
▁Char	-6538
minded	-6539
▁Three	-6540
▁categ	-6541
▁consc	-6542
▁imply	-6543
▁presc	-6544
Saharan	-6545
▁agency	-6546
▁paraly	-6547
▁poorly	-6548
▁dangers	-6549
▁intense	-6550
▁jeopard	-6551
▁missing	-6552
▁removed	-6553
▁written	-6554
▁finances	-6555
▁Stability	-6556
▁advocates	-6557
▁assumption	-6558
▁importantly	-6559
alf	-6560
def	-6561
itz	-6562
▁$7	-6563
acco	-6564
agon	-6565
▁191	-6566
▁fun	-6567
▁onto	-6568
▁outl	-6569
▁trap	-6570
▁manif	-6571
▁rooted	-6572
▁deposit	-6573
inflation	-6574
▁distinct	-6575
▁volatile	-6576
▁dominance	-6577
▁proliferation	-6578
win	-6579
ruck	-6580
▁Dar	-6581
▁Scot	-6582
▁hear	-6583
▁rail	-6584
▁unst	-6585
Palest	-6586
usalem	-6587
▁2005,	-6588
▁Ahmad	-6589
▁enlar	-6590
▁falls	-6591
veraged	-6592
▁Francis	-6593
▁dropped	-6594
▁element	-6595
▁portfol	-6596
▁strikes	-6597
▁openness	-6598
▁underest	-6599
▁underway	-6600
▁extremism	-6601
▁inability	-6602
▁projected	-6603
governmental	-6604
▁modernization	-6605
emb	-6606
hani	-6607
ibet	-6608
▁$100	-6609
▁Gold	-6610
▁Rich	-6611
▁ease	-6612
▁rock	-6613
▁Burma	-6614
▁genoc	-6615
▁Others	-6616
▁resent	-6617
▁animals	-6618
▁lasting	-6619
▁paralle	-6620
▁slowing	-6621
▁tragedy	-6622
▁undersc	-6623
▁Keynesian	-6624
▁residents	-6625
▁catastrophe	-6626
▁Constitution	-6627
lymp	-6628
roll	-6629
▁yen	-6630
party	-6631
▁acts	-6632
▁terr	-6633
iances	-6634
rained	-6635
thodox	-6636
▁anger	-6637
▁Bashar	-6638
▁Jinping	-6639
▁indicate	-6640
▁destroyed	-6641
▁Convention	-6642
bor	-6643
ple	-6644
angh	-6645
cell	-6646
ogle	-6647
opia	-6648
▁Off	-6649
▁Shin	-6650
▁epis	-6651
▁lawy	-6652
▁acute	-6653
▁seats	-6654
▁couple	-6655
▁unfair	-6656
▁empower	-6657
▁granted	-6658
▁connected	-6659
▁expenditure	-6660
comp	-6661
reen	-6662
▁You	-6663
▁hyd	-6664
▁Fatah	-6665
▁exists	-6666
▁triump	-6667
▁courage	-6668
▁inherent	-6669
▁abandoned	-6670
▁exporters	-6671
▁sectarian	-6672
▁acceptable	-6673
▁contradict	-6674
▁guaranteed	-6675
▁represented	-6676
▁cab	-6677
▁kil	-6678
▁quot	-6679
▁Arabs	-6680
▁Ebola	-6681
▁Cathol	-6682
▁Corpor	-6683
▁Labour	-6684
▁dispar	-6685
▁Hillary	-6686
▁Scotland	-6687
▁creative	-6688
▁mounting	-6689
▁stabilize	-6690
lu	-6691
bed	-6692
born	-6693
phic	-6694
rium	-6695
atism	-6696
enses	-6697
riage	-6698
ushar	-6699
▁Olymp	-6700
▁check	-6701
▁crash	-6702
▁overt	-6703
alities	-6704
astrous	-6705
▁signal	-6706
▁erupted	-6707
▁release	-6708
▁Hollande	-6709
▁approved	-6710
▁medicine	-6711
▁striking	-6712
▁requiring	-6713
▁disastrous	-6714
▁electorate	-6715
▁neighborhood	-6716
▁[	-6717
ois	-6718
▁Zh	-6719
▁Coop	-6720
▁Shar	-6721
▁puts	-6722
▁unit	-6723
anghai	-6724
▁Tibet	-6725
▁books	-6726
▁sites	-6727
▁Unless	-6728
▁struck	-6729
▁uphold	-6730
usharraf	-6731
▁Denmark	-6732
▁foresee	-6733
▁outlook	-6734
▁paradox	-6735
▁antibiot	-6736
▁Jerusalem	-6737
▁coordinated	-6738
▁contributing	-6739
ara	-6740
cel	-6741
coni	-6742
▁meg	-6743
inger	-6744
tering	-6745
uction	-6746
▁Frank	-6747
▁Power	-6748
▁deleg	-6749
ultural	-6750
▁Google	-6751
▁asking	-6752
▁define	-6753
▁display	-6754
▁feeling	-6755
illennium	-6756
▁Research	-6757
▁analysts	-6758
▁mitigate	-6759
▁resolved	-6760
▁reversed	-6761
▁expertise	-6762
▁populists	-6763
▁aspirations	-6764
▁manufacture	-6765
▁vulnerability	-6766
45;	-6767
fire	-6768
ught	-6769
▁cul	-6770
▁dog	-6771
▁dys	-6772
▁Face	-6773
▁dign	-6774
othing	-6775
▁Fried	-6776
▁expos	-6777
▁seeks	-6778
sharing	-6779
▁fields	-6780
▁Shanghai	-6781
▁generous	-6782
▁motivated	-6783
▁comparable	-6784
▁15%	-6785
▁Che	-6786
▁Del	-6787
▁slo	-6788
▁une	-6789
▁Sand	-6790
▁exem	-6791
▁vent	-6792
▁2010.	-6793
▁backl	-6794
▁enrich	-6795
▁weapon	-6796
▁visible	-6797
▁anywhere	-6798
▁Democracy	-6799
▁accession	-6800
▁explained	-6801
▁prevented	-6802
▁multinational	-6803
tr	-6804
akh	-6805
▁Army	-6806
icking	-6807
utives	-6808
▁Group	-6809
▁cease	-6810
▁chain	-6811
▁enemy	-6812
▁shale	-6813
▁turns	-6814
▁Strate	-6815
▁foster	-6816
▁anxiety	-6817
▁immense	-6818
▁vaccine	-6819
roportion	-6820
▁numerous	-6821
▁controversial	-6822
band	-6823
ctic	-6824
▁Rel	-6825
▁Back	-6826
▁code	-6827
▁date	-6828
rading	-6829
▁looked	-6830
▁select	-6831
▁sooner	-6832
▁convers	-6833
connected	-6834
▁reliance	-6835
▁affordable	-6836
▁interested	-6837
CA	-6838
IP	-6839
bl	-6840
adv	-6841
asp	-6842
aker	-6843
atar	-6844
▁cop	-6845
archy	-6846
utral	-6847
▁Each	-6848
▁Init	-6849
▁grid	-6850
▁pool	-6851
▁Medic	-6852
▁blind	-6853
▁Polish	-6854
▁Romney	-6855
▁arguing	-6856
▁lenders	-6857
▁peoples	-6858
▁pursuit	-6859
▁constant	-6860
▁platforms	-6861
▁foreigners	-6862
."	-6863
CP	-6864
ES	-6865
ils	-6866
▁BR	-6867
alog	-6868
▁bit	-6869
▁wal	-6870
nings	-6871
▁dele	-6872
▁ends	-6873
▁Earth	-6874
▁plays	-6875
▁toxic	-6876
▁Berlus	-6877
▁unrest	-6878
▁chances	-6879
▁disturb	-6880
▁waiting	-6881
struction	-6882
▁Education	-6883
▁Musharraf	-6884
▁campaigns	-6885
▁confident	-6886
▁favorable	-6887
▁procedures	-6888
bod	-6889
▁Hu	-6890
▁eg	-6891
anke	-6892
rand	-6893
unity	-6894
▁Ethi	-6895
▁halt	-6896
▁vary	-6897
racted	-6898
▁2006,	-6899
▁innoc	-6900
▁albeit	-6901
▁autonomy	-6902
▁awareness	-6903
▁desperate	-6904
▁Berlusconi	-6905
▁devaluation	-6906
▁enforcement	-6907
▁foundations	-6908
▁problematic	-6909
EY	-6910
me	-6911
va	-6912
▁(1	-6913
▁4%	-6914
▁PRI	-6915
▁Pan	-6916
▁Rou	-6917
▁ang	-6918
redit	-6919
▁Deng	-6920
▁tens	-6921
▁tsun	-6922
▁Where	-6923
▁chose	-6924
▁laure	-6925
▁valid	-6926
oration	-6927
▁Cyprus	-6928
▁Serbia	-6929
▁empire	-6930
▁murder	-6931
▁richer	-6932
lessness	-6933
▁request	-6934
▁avoiding	-6935
▁colonial	-6936
▁disagree	-6937
▁persuade	-6938
▁existence	-6939
▁reinforce	-6940
▁concentrated	-6941
▁communications	-6942
enei	-6943
icon	-6944
omed	-6945
▁2001	-6946
▁rent	-6947
▁veto	-6948
amenei	-6949
icians	-6950
▁catch	-6951
▁forth	-6952
ilitary	-6953
▁Finance	-6954
▁feature	-6955
▁periods	-6956
▁Business	-6957
▁disinteg	-6958
▁machines	-6959
▁Government	-6960
▁complement	-6961
▁executives	-6962
▁politician	-6963
▁dysfunction	-6964
▁rebalancing	-6965
▁respectively	-6966
imp	-6967
▁21	-6968
athy	-6969
atri	-6970
ixon	-6971
lets	-6972
adjust	-6973
▁Alger	-6974
▁Found	-6975
▁roads	-6976
▁deploy	-6977
▁recall	-6978
▁regist	-6979
▁cheaper	-6980
▁citizen	-6981
▁Khamenei	-6982
▁criteria	-6983
▁directed	-6984
▁division	-6985
▁realized	-6986
▁supports	-6987
▁competing	-6988
▁commodities	-6989
▁contraction	-6990
arr	-6991
osm	-6992
sen	-6993
▁Ren	-6994
▁dub	-6995
hered	-6996
▁Bosn	-6997
econom	-6998
invest	-6999
▁Kurds	-7000
▁arise	-7001
▁saved	-7002
▁calcul	-7003
chnology	-7004
ilibrium	-7005
▁Mexican	-7006
▁ancient	-7007
▁fashion	-7008
▁triumph	-7009
▁adopting	-7010
▁adoption	-7011
▁backlash	-7012
▁claiming	-7013
▁doctrine	-7014
▁dominate	-7015
▁superior	-7016
▁Represent	-7017
▁attitudes	-7018
▁communist	-7019
▁philosoph	-7020
▁safeguard	-7021
▁monitoring	-7022
▁reconciliation	-7023
iox	-7024
fund	-7025
hand	-7026
usse	-7027
▁upg	-7028
▁subm	-7029
▁Greens	-7030
▁remote	-7031
▁upward	-7032
▁assault	-7033
▁legislative	-7034
▁DNA	-7035
▁WTO	-7036
asive	-7037
eting	-7038
▁brief	-7039
▁facto	-7040
▁Norway	-7041
▁fellow	-7042
▁judges	-7043
▁conclude	-7044
▁divisions	-7045
▁targeting	-7046
▁reputation	-7047
▁accountable	-7048
▁achievements	-7049
onds	-7050
owed	-7051
▁Adm	-7052
▁Dis	-7053
▁Far	-7054
▁Out	-7055
▁arm	-7056
▁mag	-7057
▁sun	-7058
▁ISIS	-7059
▁feas	-7060
▁cohes	-7061
▁Macron	-7062
▁testing	-7063
▁Bernanke	-7064
▁actively	-7065
▁champion	-7066
▁channels	-7067
▁fundamentals	-7068
▁disproportion	-7069
▁5.	-7070
▁Gh	-7071
cles	-7072
backed	-7073
▁hoped	-7074
▁novel	-7075
▁poses	-7076
▁stark	-7077
▁pessim	-7078
idelines	-7079
▁binding	-7080
▁classes	-7081
▁prefere	-7082
▁Chairman	-7083
▁convince	-7084
▁geograph	-7085
▁disasters	-7086
▁justified	-7087
▁announcement	-7088
▁communication	-7089
new	-7090
iest	-7091
uity	-7092
▁11,	-7093
▁Ann	-7094
▁los	-7095
itzer	-7096
▁2003	-7097
▁fasc	-7098
▁symp	-7099
opular	-7100
▁giant	-7101
▁Center	-7102
▁begins	-7103
▁forest	-7104
▁headed	-7105
▁memory	-7106
▁cabinet	-7107
▁premium	-7108
▁Facebook	-7109
▁complain	-7110
▁indirect	-7111
▁judgment	-7112
▁committee	-7113
▁beneficial	-7114
hy	-7115
zed	-7116
iful	-7117
ooth	-7118
▁Aff	-7119
▁eye	-7120
egoti	-7121
ollar	-7122
▁Jong	-7123
ounced	-7124
▁spill	-7125
▁stood	-7126
reshold	-7127
▁advert	-7128
▁ratios	-7129
▁details	-7130
▁pensions	-7131
▁upcoming	-7132
▁alliances	-7133
▁sensitive	-7134
▁shortfall	-7135
▁convergence	-7136
ikh	-7137
▁Bh	-7138
▁SDR	-7139
▁pal	-7140
insula	-7141
▁Qatar	-7142
▁grave	-7143
▁gross	-7144
▁driver	-7145
▁honest	-7146
▁student	-7147
▁tariffs	-7148
▁balances	-7149
▁enhanced	-7150
▁familiar	-7151
▁famously	-7152
▁purposes	-7153
▁extensive	-7154
▁introduce	-7155
▁principal	-7156
▁likelihood	-7157
▁livelihood	-7158
▁optimistic	-7159
▁propaganda	-7160
▁tightening	-7161
▁Ahmadinejad	-7162
▁Cooperation	-7163
▁predictable	-7164
▁recognizing	-7165
OS	-7166
mmet	-7167
olas	-7168
omic	-7169
▁NGO	-7170
&#45;	-7171
▁door	-7172
owered	-7173
redict	-7174
▁alien	-7175
▁genes	-7176
▁remed	-7177
▁Having	-7178
▁inject	-7179
▁lowest	-7180
▁overth	-7181
▁sacrif	-7182
▁Against	-7183
▁explains	-7184
▁difficulty	-7185
▁eliminating	-7186
IT	-7187
hr	-7188
KEL	-7189
lav	-7190
rav	-7191
ding	-7192
mony	-7193
▁Kar	-7194
▁Mil	-7195
erman	-7196
▁cope	-7197
▁love	-7198
ighter	-7199
▁Somet	-7200
▁Times	-7201
▁insol	-7202
▁Reform	-7203
▁flawed	-7204
▁plural	-7205
▁stated	-7206
▁suspic	-7207
building	-7208
▁arrangement	-7209
▁sufficiently	-7210
▁congressional	-7211
jud	-7212
itch	-7213
▁Rec	-7214
KELEY	-7215
ishes	-7216
▁Road	-7217
▁melt	-7218
▁Green	-7219
▁Nixon	-7220
▁corre	-7221
▁haven	-7222
istical	-7223
▁revive	-7224
▁Capital	-7225
itzerland	-7226
▁computers	-7227
▁threshold	-7228
▁interdepend	-7229
▁contemporary	-7230
▁considerations	-7231
zo	-7232
ini	-7233
▁hub	-7234
astic	-7235
▁sets	-7236
Israel	-7237
holder	-7238
▁Kyoto	-7239
▁crops	-7240
▁donor	-7241
▁inequ	-7242
▁lived	-7243
▁ranks	-7244
forward	-7245
ollowing	-7246
▁dilemma	-7247
▁tactics	-7248
▁BERKELEY	-7249
government	-7250
▁attempted	-7251
▁realities	-7252
▁reinforced	-7253
▁Switzerland	-7254
eds	-7255
uate	-7256
▁eld	-7257
▁Chen	-7258
▁Supp	-7259
▁hurt	-7260
▁plun	-7261
▁guard	-7262
▁route	-7263
aughter	-7264
▁circle	-7265
▁invent	-7266
▁street	-7267
currency	-7268
▁somehow	-7269
▁missiles	-7270
▁alongside	-7271
▁integrity	-7272
▁Industrial	-7273
▁weaknesses	-7274
▁bureaucracy	-7275
;&	-7276
bur	-7277
▁mos	-7278
▁deem	-7279
▁fine	-7280
▁male	-7281
energy	-7282
▁Worse	-7283
▁quiet	-7284
▁fought	-7285
▁slowed	-7286
▁earthqu	-7287
▁dynamics	-7288
▁exposure	-7289
▁indebted	-7290
▁marriage	-7291
▁observed	-7292
▁proclaim	-7293
▁produces	-7294
▁affecting	-7295
▁considering	-7296
▁constrained	-7297
▁nonetheless	-7298
▁significance	-7299
▁collaboration	-7300
AV	-7301
oo	-7302
ses	-7303
kers	-7304
rong	-7305
polit	-7306
water	-7307
▁Belg	-7308
▁deny	-7309
▁inex	-7310
▁lobb	-7311
▁hedge	-7312
▁plumm	-7313
▁schol	-7314
▁virus	-7315
▁flight	-7316
▁refuse	-7317
▁remove	-7318
rational	-7319
▁Indians	-7320
▁enacted	-7321
▁reduces	-7322
▁typical	-7323
▁demanded	-7324
▁manifest	-7325
▁mobilize	-7326
controlled	-7327
▁overwhelm	-7328
▁rejection	-7329
▁popularity	-7330
▁confronting	-7331
▁territories	-7332
▁traditionally	-7333
ek	-7334
mor	-7335
▁24	-7336
aunt	-7337
izon	-7338
▁Five	-7339
▁Jean	-7340
accept	-7341
ailing	-7342
▁2012.	-7343
▁Crime	-7344
▁Moroc	-7345
▁enfor	-7346
▁input	-7347
▁pound	-7348
▁Summit	-7349
▁denied	-7350
▁formed	-7351
▁funded	-7352
election	-7353
▁payment	-7354
orruption	-7355
▁Whatever	-7356
▁genocide	-7357
▁treaties	-7358
▁discussed	-7359
▁regularly	-7360
▁understandable	-7361
SA	-7362
▁.	-7363
▁Qu	-7364
▁Rw	-7365
iary	-7366
such	-7367
▁Emp	-7368
ivals	-7369
icated	-7370
▁2013.	-7371
▁plaus	-7372
▁dignity	-7373
▁relying	-7374
▁shifted	-7375
astrophic	-7376
▁Thatcher	-7377
▁accident	-7378
▁steadily	-7379
▁wellbeing	-7380
▁transportation	-7381
sey	-7382
igen	-7383
▁cas	-7384
▁exh	-7385
▁fan	-7386
hetic	-7387
inite	-7388
night	-7389
▁Pers	-7390
▁cens	-7391
▁film	-7392
▁jump	-7393
orship	-7394
▁Assoc	-7395
▁Women	-7396
▁judge	-7397
▁merit	-7398
▁proud	-7399
▁analog	-7400
▁chosen	-7401
▁method	-7402
▁volume	-7403
▁Somalia	-7404
▁deserve	-7405
▁isolated	-7406
▁judicial	-7407
▁overseas	-7408
▁software	-7409
▁cooperate	-7410
▁mortality	-7411
▁discovered	-7412
▁destructive	-7413
▁representative	-7414
Th	-7415
umn	-7416
▁7.	-7417
amin	-7418
educ	-7419
hman	-7420
rict	-7421
uris	-7422
▁Ang	-7423
▁ble	-7424
0,000	-7425
▁coun	-7426
▁intr	-7427
ocrats	-7428
urable	-7429
▁Husse	-7430
▁abund	-7431
▁career	-7432
▁contag	-7433
▁concess	-7434
▁suspect	-7435
▁tension	-7436
▁creditor	-7437
▁foremost	-7438
▁restoring	-7439
▁Millennium	-7440
▁equilibrium	-7441
▁experiences	-7442
HI	-7443
ey	-7444
ras	-7445
▁Gü	-7446
ivot	-7447
serv	-7448
▁Ali	-7449
▁map	-7450
▁pul	-7451
arked	-7452
henko	-7453
under	-7454
▁Park	-7455
▁curb	-7456
▁gaps	-7457
▁heat	-7458
▁tons	-7459
active	-7460
chmark	-7461
incing	-7462
retton	-7463
▁harsh	-7464
▁honor	-7465
▁train	-7466
ription	-7467
▁adding	-7468
▁assist	-7469
▁cataly	-7470
▁deliber	-7471
▁follows	-7472
▁skilled	-7473
▁suicide	-7474
▁investor	-7475
▁desirable	-7476
▁shortages	-7477
ón	-7478
ums	-7479
ache	-7480
anim	-7481
▁500	-7482
▁glo	-7483
elect	-7484
ophob	-7485
▁luck	-7486
iating	-7487
iciary	-7488
reform	-7489
▁Woods	-7490
▁Office	-7491
▁restra	-7492
▁refusal	-7493
▁schemes	-7494
▁Northern	-7495
▁accurate	-7496
▁laureate	-7497
▁teachers	-7498
▁tendency	-7499
▁deepening	-7500
▁Foundation	-7501
▁components	-7502
▁accelerating	-7503
CT	-7504
asy	-7505
erry	-7506
▁Wal	-7507
scape	-7508
▁depr	-7509
▁1960’	-7510
▁Boliv	-7511
▁Labor	-7512
▁draft	-7513
▁finds	-7514
▁ocean	-7515
▁unequ	-7516
▁abuses	-7517
▁exclus	-7518
▁attitude	-7519
▁democrat	-7520
▁feasible	-7521
▁Ukrainian	-7522
▁followers	-7523
▁happiness	-7524
▁explicitly	-7525
▁situations	-7526
▁inflationary	-7527
CO	-7528
ky	-7529
ocal	-7530
wind	-7531
▁Ter	-7532
▁tob	-7533
ected	-7534
▁unus	-7535
▁resur	-7536
▁School	-7537
▁Several	-7538
▁aspects	-7539
▁enables	-7540
▁talking	-7541
▁telling	-7542
▁tobacco	-7543
▁Alliance	-7544
▁delivery	-7545
▁pragmatic	-7546
▁selection	-7547
▁comparison	-7548
▁eliminated	-7549
▁prevailing	-7550
▁surrounding	-7551
▁administrative	-7552
It	-7553
ham	-7554
▁Ba	-7555
▁Don	-7556
▁Tay	-7557
▁bid	-7558
▁kid	-7559
gments	-7560
▁entry	-7561
▁panic	-7562
▁ultra	-7563
essions	-7564
▁assass	-7565
quarters	-7566
▁Ethiopia	-7567
▁declines	-7568
▁embraced	-7569
▁involves	-7570
▁newspaper	-7571
▁receiving	-7572
▁appreciate	-7573
▁insecurity	-7574
▁supervision	-7575
▁historically	-7576
cul	-7577
▁Ts	-7578
rill	-7579
ernal	-7580
▁Fran	-7581
▁Nazi	-7582
▁Year	-7583
▁trem	-7584
ioxide	-7585
▁sight	-7586
▁fairly	-7587
▁precip	-7588
▁Hussein	-7589
▁bolster	-7590
▁distant	-7591
▁hostile	-7592
▁tsunami	-7593
▁judiciary	-7594
▁resolving	-7595
▁acceptance	-7596
▁emphasized	-7597
▁competitors	-7598
▁ineffective	-7599
iat	-7600
ipp	-7601
supp	-7602
▁San	-7603
▁outf	-7604
advant	-7605
urance	-7606
▁2011.	-7607
▁crack	-7608
▁deriv	-7609
largest	-7610
uration	-7611
▁steady	-7612
▁joining	-7613
▁shortage	-7614
▁unstable	-7615
▁challenged	-7616
▁definition	-7617
▁enterprise	-7618
▁adjustments	-7619
▁desperately	-7620
▁catastrophic	-7621
▁introduction	-7622
▁protectionist	-7623
cu	-7624
▁23	-7625
▁Xia	-7626
▁fit	-7627
▁Mahm	-7628
▁pull	-7629
▁roll	-7630
ildren	-7631
▁2003,	-7632
▁amend	-7633
▁Lehman	-7634
▁dispos	-7635
▁doubts	-7636
▁incumb	-7637
▁relies	-7638
▁seeing	-7639
▁versus	-7640
ceptions	-7641
▁Bretton	-7642
▁acquire	-7643
▁contest	-7644
▁discont	-7645
▁ranging	-7646
▁optimism	-7647
▁Greenspan	-7648
▁naturally	-7649
▁preferred	-7650
▁constitute	-7651
▁treatments	-7652
▁differently	-7653
▁constructive	-7654
▁determination	-7655
▁straightforward	-7656
gers	-7657
▁bed	-7658
▁isn	-7659
orted	-7660
▁duty	-7661
▁evil	-7662
▁fool	-7663
necess	-7664
▁align	-7665
▁arsen	-7666
▁massac	-7667
▁enlarge	-7668
▁neglect	-7669
▁lowering	-7670
▁unaccept	-7671
▁undertake	-7672
▁criticized	-7673
▁declaration	-7674
ply	-7675
▁TV	-7676
dict	-7677
▁Tax	-7678
▁bip	-7679
▁web	-7680
anium	-7681
usive	-7682
▁card	-7683
▁mood	-7684
▁nurt	-7685
▁vice	-7686
▁2016,	-7687
▁broke	-7688
▁tends	-7689
ounding	-7690
▁scarce	-7691
▁machine	-7692
▁neutral	-7693
▁shaping	-7694
▁younger	-7695
▁Brothers	-7696
▁implying	-7697
▁obstacle	-7698
▁benchmark	-7699
▁strongest	-7700
▁collateral	-7701
▁confronted	-7702
▁delivering	-7703
▁recognizes	-7704
▁comparative	-7705
OEs	-7706
irm	-7707
▁Lo	-7708
airo	-7709
▁Dra	-7710
▁Shi	-7711
▁Sur	-7712
ander	-7713
▁Peru	-7714
▁tail	-7715
▁2004,	-7716
▁Gates	-7717
▁bills	-7718
▁dereg	-7719
▁pride	-7720
▁degrad	-7721
▁earned	-7722
▁exempl	-7723
▁nowhere	-7724
▁pledged	-7725
▁dynamism	-7726
▁meltdown	-7727
▁disappear	-7728
ala	-7729
-199	-7730
cure	-7731
hard	-7732
▁Day	-7733
▁Ref	-7734
asted	-7735
isher	-7736
▁1930	-7737
▁note	-7738
▁uphe	-7739
imated	-7740
licted	-7741
▁grant	-7742
▁rigid	-7743
growing	-7744
▁forget	-7745
▁pledge	-7746
▁worker	-7747
▁traject	-7748
▁vicious	-7749
▁worrying	-7750
▁premature	-7751
▁prevention	-7752
▁spectacular	-7753
▁speculative	-7754
▁underpinned	-7755
▁professionals	-7756
▁interpretation	-7757
no	-7758
spe	-7759
irty	-7760
uled	-7761
▁Air	-7762
▁bes	-7763
ullah	-7764
▁rank	-7765
▁Doing	-7766
▁Irish	-7767
▁brand	-7768
▁endors	-7769
▁Mahmoud	-7770
▁burdens	-7771
▁forests	-7772
▁uranium	-7773
▁coherent	-7774
▁entering	-7775
▁findings	-7776
▁outbreak	-7777
▁disadvant	-7778
▁interview	-7779
▁altogether	-7780
▁intentions	-7781
▁protesters	-7782
-7	-7783
ghi	-7784
iol	-7785
▁pu	-7786
asks	-7787
atal	-7788
▁Inf	-7789
▁Oil	-7790
▁hes	-7791
Japan	-7792
▁Decl	-7793
▁Mich	-7794
▁Wolf	-7795
▁rend	-7796
▁Prize	-7797
▁zones	-7798
▁Cambod	-7799
▁advent	-7800
▁bitter	-7801
▁freely	-7802
▁resign	-7803
▁stakes	-7804
▁stream	-7805
adjusted	-7806
▁Richard	-7807
▁liberty	-7808
▁revival	-7809
▁describe	-7810
▁document	-7811
▁employed	-7812
▁inspired	-7813
▁nutrition	-7814
▁settlements	-7815
▁urbanization	-7816
▁concentration	-7817
Cs	-7818
▁27	-7819
▁7%	-7820
lict	-7821
▁Lis	-7822
▁inj	-7823
▁rub	-7824
inces	-7825
prime	-7826
▁flat	-7827
▁mism	-7828
liance	-7829
taking	-7830
▁alive	-7831
▁consp	-7832
enomics	-7833
▁disarm	-7834
▁namely	-7835
▁patent	-7836
▁Austria	-7837
▁degrees	-7838
▁enjoyed	-7839
▁implied	-7840
▁clinical	-7841
▁cyclical	-7842
▁meantime	-7843
▁minimize	-7844
▁troubled	-7845
democratic	-7846
▁Otherwise	-7847
▁diplomats	-7848
▁successes	-7849
▁complexity	-7850
▁assumptions	-7851
▁revolutions	-7852
▁expansionary	-7853
▁temperatures	-7854
▁destabilizing	-7855
DI	-7856
NCE	-7857
zing	-7858
▁Env	-7859
tical	-7860
▁Emer	-7861
▁flag	-7862
▁outs	-7863
▁toll	-7864
NCETON	-7865
iative	-7866
ocracy	-7867
▁Mario	-7868
▁camps	-7869
▁style	-7870
▁Program	-7871
▁affects	-7872
ideration	-7873
▁Governor	-7874
▁advocate	-7875
▁arrested	-7876
▁governed	-7877
▁holdings	-7878
▁PRINCETON	-7879
▁integrate	-7880
▁providers	-7881
▁reporting	-7882
▁returning	-7883
▁infectious	-7884
▁antibiotics	-7885
▁livelihoods	-7886
▁acknowledged	-7887
-8	-7888
gs	-7889
▁$8	-7890
oler	-7891
well	-7892
▁205	-7893
▁Squ	-7894
▁mun	-7895
itate	-7896
▁Iron	-7897
ipping	-7898
▁fraud	-7899
▁indef	-7900
▁moder	-7901
▁safer	-7902
General	-7903
lements	-7904
renched	-7905
▁adults	-7906
▁bought	-7907
▁Rouhani	-7908
▁concert	-7909
▁cultures	-7910
▁defeated	-7911
▁parallel	-7912
▁unnecess	-7913
▁emphasize	-7914
▁interesting	-7915
▁predecessor	-7916
LIN	-7917
ael	-7918
ille	-7919
ords	-7920
▁DEL	-7921
▁Pre	-7922
▁Ult	-7923
▁cyn	-7924
olved	-7925
organ	-7926
vered	-7927
▁diff	-7928
▁fish	-7929
alling	-7930
apping	-7931
▁vigor	-7932
▁Draghi	-7933
▁therap	-7934
▁consent	-7935
▁exploit	-7936
▁pricing	-7937
▁richest	-7938
▁ambition	-7939
▁frequent	-7940
▁governor	-7941
▁innocent	-7942
▁Following	-7943
▁defending	-7944
▁emotional	-7945
▁cooperative	-7946
▁exacerbated	-7947
▁consideration	-7948
▁investigation	-7949
▁transatlantic	-7950
OK	-7951
oe	-7952
lov	-7953
▁sn	-7954
brid	-7955
rutin	-7956
▁cosm	-7957
▁DELHI	-7958
▁blamed	-7959
▁Economy	-7960
▁islands	-7961
▁surpass	-7962
▁Protocol	-7963
▁advisers	-7964
▁enduring	-7965
▁restored	-7966
productive	-7967
▁extremist	-7968
▁irrespons	-7969
▁landscape	-7970
iodiversity	-7971
▁artificial	-7972
▁globalized	-7973
▁newspapers	-7974
▁reflecting	-7975
▁unexpected	-7976
▁concessions	-7977
▁temperature	-7978
▁predecessors	-7979
asi	-7980
▁$6	-7981
▁(“	-7982
▁70	-7983
▁8%	-7984
aked	-7985
▁End	-7986
▁Jun	-7987
ounce	-7988
▁Next	-7989
▁elder	-7990
▁fluct	-7991
▁grasp	-7992
▁polio	-7993
▁sheet	-7994
▁stuck	-7995
▁animal	-7996
▁player	-7997
▁soared	-7998
▁favored	-7999
▁rebuild	-8000
▁scrutin	-8001
▁Friedman	-8002
▁football	-8003
▁officers	-8004
▁scholars	-8005
▁accounted	-8006
▁medicines	-8007
▁prisoners	-8008
▁earthquake	-8009
▁accumulation	-8010
EI	-8011
cap	-8012
tic	-8013
van	-8014
▁God	-8015
▁yes	-8016
house	-8017
▁abol	-8018
atible	-8019
▁hydro	-8020
▁juris	-8021
▁seize	-8022
▁stret	-8023
▁waves	-8024
▁Lisbon	-8025
▁shaped	-8026
▁tribal	-8027
▁Morocco	-8028
▁Whereas	-8029
▁aggress	-8030
▁article	-8031
▁surface	-8032
▁fraction	-8033
▁informed	-8034
▁terrible	-8035
▁forecasts	-8036
▁initiated	-8037
▁officially	-8038
▁Association	-8039
▁specifically	-8040
CD	-8041
eu	-8042
ket	-8043
vey	-8044
aise	-8045
inal	-8046
left	-8047
ogen	-8048
▁Sad	-8049
▁haz	-8050
edded	-8051
otten	-8052
vency	-8053
▁Real	-8054
▁cart	-8055
▁Elect	-8056
▁brink	-8057
▁rally	-8058
▁split	-8059
▁steel	-8060
▁upper	-8061
viously	-8062
▁Crisis	-8063
▁Ronald	-8064
▁images	-8065
▁losers	-8066
▁tempor	-8067
▁devoted	-8068
▁doubled	-8069
▁visited	-8070
▁Africans	-8071
▁occupied	-8072
▁socially	-8073
investment	-8074
▁indicates	-8075
▁unpopular	-8076
Palestinian	-8077
▁irrelevant	-8078
BI	-8079
cup	-8080
igm	-8081
voc	-8082
▁22	-8083
▁€1	-8084
abet	-8085
fold	-8086
need	-8087
velt	-8088
▁Bre	-8089
▁raw	-8090
▁tit	-8091
aping	-8092
▁curt	-8093
▁flee	-8094
▁laid	-8095
▁lift	-8096
▁perv	-8097
▁turb	-8098
▁Micro	-8099
▁Ocean	-8100
▁piece	-8101
▁trick	-8102
osevelt	-8103
▁Rwanda	-8104
▁Shinzo	-8105
▁corner	-8106
▁obtain	-8107
▁Already	-8108
▁Liberal	-8109
▁brother	-8110
▁dismant	-8111
▁focuses	-8112
▁looming	-8113
▁scandal	-8114
▁serving	-8115
▁signals	-8116
▁captured	-8117
▁incorpor	-8118
▁recorded	-8119
▁hospitals	-8120
▁plausible	-8121
▁precedent	-8122
▁highlights	-8123
▁existential	-8124
HO	-8125
▁6%	-8126
arat	-8127
conf	-8128
high	-8129
▁bab	-8130
▁hom	-8131
▁ing	-8132
alley	-8133
ester	-8134
iques	-8135
itime	-8136
▁Alex	-8137
▁Mont	-8138
▁bias	-8139
▁club	-8140
▁leng	-8141
▁tiny	-8142
ispens	-8143
▁2009.	-8144
▁coinc	-8145
▁fault	-8146
▁hyper	-8147
▁stems	-8148
▁regain	-8149
▁smooth	-8150
▁unfold	-8151
▁classic	-8152
▁closing	-8153
▁arguably	-8154
▁founding	-8155
▁generals	-8156
▁accelerated	-8157
▁highlighted	-8158
▁preferences	-8159
▁speculation	-8160
▁stabilizing	-8161
▁deleveraging	-8162
”)	-8163
FTA	-8164
ude	-8165
uma	-8166
uum	-8167
inst	-8168
▁bio	-8169
liers	-8170
▁amid	-8171
▁cold	-8172
▁enjo	-8173
▁burst	-8174
▁conce	-8175
▁flaws	-8176
leading	-8177
society	-8178
▁System	-8179
▁deemed	-8180
▁contact	-8181
▁founded	-8182
▁lacking	-8183
▁municip	-8184
▁ratings	-8185
▁worries	-8186
▁epidemic	-8187
▁eventual	-8188
▁overlook	-8189
▁republic	-8190
▁Roosevelt	-8191
▁appointed	-8192
▁unpredict	-8193
▁entrenched	-8194
▁responding	-8195
.&	-8196
IF	-8197
yc	-8198
RID	-8199
oha	-8200
tor	-8201
ribe	-8202
▁Lad	-8203
▁Lar	-8204
▁MAD	-8205
▁Vol	-8206
sheet	-8207
▁plus	-8208
▁spot	-8209
▁suit	-8210
▁alleg	-8211
▁humil	-8212
▁ignor	-8213
▁houses	-8214
▁impris	-8215
▁prompt	-8216
▁rivals	-8217
▁serves	-8218
▁solely	-8219
ominated	-8220
▁Neither	-8221
▁lawyers	-8222
▁sending	-8223
▁tremend	-8224
▁writing	-8225
ratically	-8226
▁mutually	-8227
▁tradable	-8228
▁magnitude	-8229
▁occurring	-8230
▁shrinking	-8231
▁Ultimately	-8232
▁bargaining	-8233
▁exclusively	-8234
▁‘	-8235
orse	-8236
prom	-8237
ropr	-8238
▁Few	-8239
▁Sol	-8240
▁bon	-8241
▁hat	-8242
armed	-8243
front	-8244
inter	-8245
ormal	-8246
think	-8247
▁anch	-8248
▁pact	-8249
orious	-8250
rugman	-8251
▁Above	-8252
▁James	-8253
▁admit	-8254
▁incon	-8255
▁mixed	-8256
▁revel	-8257
▁Crimea	-8258
▁Making	-8259
▁Square	-8260
▁median	-8261
▁permit	-8262
▁Environ	-8263
▁Nicolas	-8264
▁complac	-8265
▁tourism	-8266
▁assuming	-8267
▁cohesion	-8268
▁contagion	-8269
▁accomplish	-8270
▁constantly	-8271
▁obligation	-8272
▁suggesting	-8273
EU	-8274
GB	-8275
KP	-8276
ny	-8277
berg	-8278
tech	-8279
▁Gen	-8280
▁Sri	-8281
▁Web	-8282
erson	-8283
icted	-8284
izers	-8285
▁1997	-8286
▁Serv	-8287
▁calm	-8288
▁mira	-8289
▁myth	-8290
▁Gülen	-8291
▁mosqu	-8292
▁Within	-8293
▁anemic	-8294
▁feared	-8295
▁fortun	-8296
ologists	-8297
▁entails	-8298
▁exhaust	-8299
▁winners	-8300
▁buildings	-8301
▁functions	-8302
▁resilient	-8303
▁allocation	-8304
▁convincing	-8305
▁diminished	-8306
▁expectancy	-8307
▁negotiation	-8308
▁availability	-8309
▁bureaucratic	-8310
▁Globalization	-8311
▁overwhelmingly	-8312
DA	-8313
mod	-8314
▁IP	-8315
▁WW	-8316
emer	-8317
riad	-8318
utor	-8319
▁300	-8320
▁Def	-8321
atell	-8322
utors	-8323
▁Dire	-8324
▁Doha	-8325
▁Marx	-8326
▁hike	-8327
▁odds	-8328
▁pays	-8329
▁ramp	-8330
▁site	-8331
global	-8332
ieties	-8333
▁Apple	-8334
▁Franç	-8335
▁lands	-8336
▁patri	-8337
▁roots	-8338
▁trump	-8339
▁League	-8340
▁Report	-8341
▁checks	-8342
▁Krugman	-8343
▁Twitter	-8344
▁biology	-8345
▁college	-8346
▁portray	-8347
▁western	-8348
▁director	-8349
▁headlines	-8350
▁instrument	-8351
▁philosophy	-8352
▁trajectory	-8353
▁temporarily	-8354
▁civilization	-8355
▁deflationary	-8356
room	-8357
▁1.5	-8358
▁asy	-8359
▁Does	-8360
▁Lank	-8361
▁buff	-8362
▁caut	-8363
▁edge	-8364
▁erod	-8365
▁king	-8366
▁nets	-8367
▁topp	-8368
▁Kerry	-8369
▁teams	-8370
▁MADRID	-8371
▁Minist	-8372
▁absent	-8373
▁Qaddafi	-8374
▁charged	-8375
▁devices	-8376
▁mothers	-8377
▁trained	-8378
▁unknown	-8379
▁supervis	-8380
▁Economics	-8381
▁appealing	-8382
▁confirmed	-8383
▁preparing	-8384
▁excessively	-8385
▁frustration	-8386
▁Conservative	-8387
kes	-8388
▁TB	-8389
offs	-8390
▁Pop	-8391
▁sho	-8392
ranch	-8393
riend	-8394
▁Food	-8395
▁SDGs	-8396
▁tasks	-8397
comings	-8398
▁BERLIN	-8399
▁Valley	-8400
▁firmly	-8401
▁letter	-8402
▁rebels	-8403
▁voices	-8404
▁corresp	-8405
▁forever	-8406
▁harmful	-8407
▁virtual	-8408
▁engaging	-8409
▁securing	-8410
industrial	-8411
▁enlargement	-8412
▁stakeholders	-8413
▁transmission	-8414
▁demonstrations	-8415
▁disintegration	-8416
-3	-8417
bar	-8418
▁Ed	-8419
▁lic	-8420
▁pra	-8421
▁pand	-8422
▁sake	-8423
▁sees	-8424
▁breat	-8425
▁utter	-8426
ulators	-8427
▁bridge	-8428
▁spiral	-8429
cyclical	-8430
▁Algeria	-8431
▁answers	-8432
▁arrived	-8433
▁fishing	-8434
▁legally	-8435
▁unified	-8436
▁attacked	-8437
▁deployed	-8438
▁detailed	-8439
ispensable	-8440
▁Churchill	-8441
▁Recession	-8442
▁contained	-8443
▁recapital	-8444
▁aggression	-8445
▁violations	-8446
▁architecture	-8447
▁shortcomings	-8448
▁unacceptable	-8449
▁&	-8450
ONG	-8451
Sem	-8452
▁Ku	-8453
▁NP	-8454
AIDS	-8455
hors	-8456
wage	-8457
aning	-8458
eterm	-8459
▁2002	-8460
▁Long	-8461
▁Tony	-8462
▁cure	-8463
▁feat	-8464
▁rain	-8465
▁soil	-8466
▁succ	-8467
▁yang	-8468
siders	-8469
▁2014.	-8470
▁gases	-8471
▁incur	-8472
▁roles	-8473
▁Fourth	-8474
▁Instit	-8475
▁agents	-8476
▁approx	-8477
▁demise	-8478
▁impede	-8479
▁starts	-8480
▁Article	-8481
▁applies	-8482
▁bargain	-8483
▁exchang	-8484
▁impover	-8485
▁whereby	-8486
▁entities	-8487
ifications	-8488
▁engineers	-8489
▁Economists	-8490
▁compensate	-8491
▁irrational	-8492
▁operational	-8493
odd	-8494
eter	-8495
▁Lee	-8496
▁McC	-8497
▁tum	-8498
▁bust	-8499
▁gene	-8500
▁pump	-8501
▁spok	-8502
▁vide	-8503
▁grows	-8504
▁Fiscal	-8505
▁advers	-8506
▁deepen	-8507
▁repair	-8508
▁vacuum	-8509
▁History	-8510
▁elderly	-8511
▁encount	-8512
▁landing	-8513
▁malaise	-8514
▁orderly	-8515
▁torture	-8516
▁François	-8517
▁hegemony	-8518
▁ministry	-8519
▁thousand	-8520
▁widening	-8521
▁discourse	-8522
▁struggles	-8523
▁frameworks	-8524
▁association	-8525
▁derivatives	-8526
▁distinguish	-8527
▁foreseeable	-8528
dec	-8529
des	-8530
imm	-8531
▁28	-8532
▁Ay	-8533
abwe	-8534
▁Fut	-8535
aired	-8536
backs	-8537
▁Zimb	-8538
▁beat	-8539
▁item	-8540
▁wife	-8541
idance	-8542
morrow	-8543
weight	-8544
▁crowd	-8545
▁flour	-8546
▁stick	-8547
▁Simply	-8548
▁excell	-8549
▁purely	-8550
▁winner	-8551
▁declare	-8552
▁ranking	-8553
▁Zimbabwe	-8554
▁intermed	-8555
▁tomorrow	-8556
▁completed	-8557
▁respected	-8558
▁spreading	-8559
▁tolerance	-8560
▁disruption	-8561
▁Constitutional	-8562
vy	-8563
USS	-8564
iro	-8565
ups	-8566
▁Op	-8567
▁id	-8568
▁na	-8569
cked	-8570
step	-8571
▁ice	-8572
lovak	-8573
occup	-8574
orage	-8575
▁1960	-8576
▁town	-8577
▁Civil	-8578
▁Stand	-8579
▁angry	-8580
▁phone	-8581
▁Bosnia	-8582
▁Empire	-8583
▁casual	-8584
▁detain	-8585
▁provoc	-8586
▁reveal	-8587
▁Koreans	-8588
▁beliefs	-8589
▁blocked	-8590
▁entitled	-8591
▁excluded	-8592
▁accepting	-8593
▁suspicion	-8594
▁consolidate	-8595
▁distinction	-8596
▁biodiversity	-8597
▁dysfunctional	-8598
▁psychological	-8599
,"	-8600
IB	-8601
Sh	-8602
sch	-8603
▁$10	-8604
▁Equ	-8605
aksin	-8606
▁Vice	-8607
regard	-8608
valued	-8609
▁depth	-8610
▁drove	-8611
▁indif	-8612
▁maneu	-8613
▁recur	-8614
control	-8615
▁missed	-8616
▁satell	-8617
▁window	-8618
▁damaged	-8619
▁dioxide	-8620
▁evolved	-8621
▁kilomet	-8622
▁minimal	-8623
▁monitor	-8624
▁maximize	-8625
▁orthodox	-8626
▁regulate	-8627
▁stemming	-8628
employment	-8629
performing	-8630
▁privatization	-8631
▁representation	-8632
LO	-8633
500	-8634
PEC	-8635
col	-8636
atch	-8637
vity	-8638
▁Hen	-8639
▁sad	-8640
added	-8641
oping	-8642
trans	-8643
▁Bund	-8644
▁Gord	-8645
▁hind	-8646
▁maln	-8647
▁stif	-8648
guided	-8649
saving	-8650
▁Brown	-8651
▁surre	-8652
angible	-8653
assador	-8654
ologies	-8655
▁cycles	-8656
▁Islands	-8657
▁carries	-8658
▁outrage	-8659
▁Cambodia	-8660
▁choosing	-8661
▁dictator	-8662
▁condemned	-8663
▁hostility	-8664
▁prevailed	-8665
▁surprised	-8666
▁temptation	-8667
▁intellectuals	-8668
▁reconstruction	-8669
PA	-8670
tw	-8671
zi	-8672
BOC	-8673
ELS	-8674
ito	-8675
ixt	-8676
risk	-8677
▁Had	-8678
▁lux	-8679
▁ven	-8680
▁Bhut	-8681
▁keen	-8682
▁award	-8683
▁midst	-8684
▁navig	-8685
▁teach	-8686
.&#160;	-8687
▁Iraqis	-8688
▁Sharon	-8689
▁bloody	-8690
▁observ	-8691
▁occurs	-8692
▁sports	-8693
▁ceiling	-8694
▁drivers	-8695
▁tempted	-8696
▁Director	-8697
▁breaking	-8698
▁carrying	-8699
▁discount	-8700
▁downside	-8701
▁insisted	-8702
▁opposing	-8703
▁speaking	-8704
▁symptoms	-8705
▁Initiative	-8706
▁benefiting	-8707
▁impression	-8708
▁indefinite	-8709
▁infections	-8710
▁application	-8711
▁distributed	-8712
▁financially	-8713
▁democratically	-8714
▁redistribution	-8715
ua	-8716
”:	-8717
awa	-8718
nel	-8719
▁Ev	-8720
▁Pu	-8721
ione	-8722
▁ost	-8723
▁Good	-8724
▁Mass	-8725
▁Sino	-8726
▁hide	-8727
▁tied	-8728
▁Armen	-8729
▁Right	-8730
▁lobby	-8731
▁ought	-8732
▁Terror	-8733
▁basket	-8734
▁relent	-8735
▁Bolivia	-8736
▁assumes	-8737
▁confirm	-8738
▁drought	-8739
▁Catholic	-8740
▁fragment	-8741
▁guidance	-8742
▁maritime	-8743
▁promoted	-8744
▁factories	-8745
▁oversight	-8746
▁professor	-8747
▁recovered	-8748
▁scenarios	-8749
▁capitalist	-8750
▁connection	-8751
▁reasonably	-8752
▁undermines	-8753
▁efficiently	-8754
▁demonstrates	-8755
▁justification	-8756
▁characteristics	-8757
In	-8758
yo	-8759
▁x	-8760
irt	-8761
spec	-8762
▁Kaz	-8763
▁McK	-8764
▁box	-8765
▁gar	-8766
skept	-8767
▁Jose	-8768
▁Mand	-8769
▁Time	-8770
▁airc	-8771
▁fier	-8772
▁puzz	-8773
▁tide	-8774
USSELS	-8775
abetes	-8776
profit	-8777
▁Cairo	-8778
▁Chief	-8779
▁incap	-8780
▁units	-8781
defense	-8782
▁tragic	-8783
▁vested	-8784
communic	-8785
▁exceeds	-8786
▁notable	-8787
▁overhaul	-8788
▁pipeline	-8789
▁Brazilian	-8790
▁liability	-8791
▁portfolio	-8792
▁voluntary	-8793
▁ecosystems	-8794
▁traditions	-8795
▁requirement	-8796
▁commentators	-8797
▁polarization	-8798
▁interconnected	-8799
Wh	-8800
ym	-8801
anes	-8802
inct	-8803
▁rac	-8804
▁Stud	-8805
▁diet	-8806
▁toug	-8807
owners	-8808
▁Moham	-8809
▁ample	-8810
▁annex	-8811
▁crude	-8812
▁harmon	-8813
▁parity	-8814
ortheast	-8815
▁Charles	-8816
▁Senator	-8817
▁condemn	-8818
▁consume	-8819
▁exagger	-8820
▁traders	-8821
▁BRUSSELS	-8822
▁aircraft	-8823
▁fairness	-8824
▁interact	-8825
▁reversal	-8826
▁Consensus	-8827
▁discovery	-8828
▁militants	-8829
▁offensive	-8830
▁discontent	-8831
▁exacerbate	-8832
▁punishment	-8833
▁inequalities	-8834
▁manufacturers	-8835
▁recommendations	-8836
LA	-8837
5%.	-8838
isms	-8839
quis	-8840
▁sky	-8841
▁tab	-8842
▁Gene	-8843
▁Less	-8844
▁olig	-8845
encing	-8846
▁alter	-8847
▁incre	-8848
▁radio	-8849
▁refin	-8850
iration	-8851
station	-8852
▁behave	-8853
▁length	-8854
▁notice	-8855
▁preval	-8856
▁theore	-8857
▁asymmet	-8858
▁soaring	-8859
▁bailouts	-8860
▁translate	-8861
▁profitable	-8862
▁tremendous	-8863
▁degradation	-8864
hart	-8865
nedy	-8866
onym	-8867
▁Fuk	-8868
▁eat	-8869
arget	-8870
green	-8871
rafat	-8872
▁NGOs	-8873
▁cool	-8874
▁warm	-8875
resist	-8876
▁Lanka	-8877
▁dying	-8878
▁griev	-8879
▁relax	-8880
▁spoke	-8881
▁spons	-8882
▁Greeks	-8883
▁orders	-8884
▁timing	-8885
▁unanim	-8886
▁drawing	-8887
▁install	-8888
▁monopol	-8889
▁retreat	-8890
▁unclear	-8891
fficiency	-8892
▁Lebanese	-8893
▁confined	-8894
▁distrust	-8895
▁embedded	-8896
▁imported	-8897
▁printing	-8898
▁advancing	-8899
▁attracted	-8900
▁countless	-8901
▁forgotten	-8902
▁reference	-8903
▁Christians	-8904
▁disruptive	-8905
▁recessions	-8906
▁resentment	-8907
▁superpower	-8908
▁constitutes	-8909
▁diminishing	-8910
▁predictions	-8911
▁restructure	-8912
▁conservation	-8913
sum	-8914
ulg	-8915
Russ	-8916
ford	-8917
▁Cup	-8918
▁Roy	-8919
▁civ	-8920
▁rid	-8921
atter	-8922
dated	-8923
essed	-8924
osion	-8925
produ	-8926
▁Hait	-8927
▁reun	-8928
▁ster	-8929
arious	-8930
▁McKin	-8931
▁acted	-8932
▁forge	-8933
▁miles	-8934
▁squee	-8935
Western	-8936
enophob	-8937
▁Histor	-8938
▁Kazakh	-8939
▁Sunnis	-8940
▁master	-8941
▁resemb	-8942
▁Freedom	-8943
▁Juncker	-8944
▁Kennedy	-8945
▁Success	-8946
▁erosion	-8947
▁formula	-8948
ependence	-8949
▁admitted	-8950
▁chairman	-8951
▁distress	-8952
▁endorsed	-8953
▁Community	-8954
▁Sometimes	-8955
▁dimension	-8956
▁kilometers	-8957
▁accumulated	-8958
▁approaching	-8959
▁applications	-8960
YO	-8961
eal	-8962
▁35	-8963
▁CD	-8964
▁BEI	-8965
▁cum	-8966
▁Mart	-8967
▁Post	-8968
▁coff	-8969
▁pock	-8970
▁stal	-8971
▁subt	-8972
ilater	-8973
ocking	-8974
uously	-8975
▁1,000	-8976
▁2007.	-8977
▁Marsh	-8978
▁Niger	-8979
▁proof	-8980
lusions	-8981
▁Gordon	-8982
▁inputs	-8983
▁lifest	-8984
▁mathem	-8985
▁taught	-8986
▁transc	-8987
▁Finland	-8988
▁automob	-8989
▁Iranians	-8990
▁Strategy	-8991
▁Together	-8992
▁acquired	-8993
▁facility	-8994
▁partisan	-8995
▁philosop	-8996
▁warnings	-8997
▁promotion	-8998
▁biological	-8999
▁succession	-9000
▁techniques	-9001
▁undertaken	-9002
▁accordingly	-9003
▁anticipated	-9004
▁bureaucrats	-9005
▁controlling	-9006
▁transnational	-9007
▁unpredictable	-9008
UN	-9009
eft	-9010
erg	-9011
ino	-9012
OKYO	-9013
lers	-9014
made	-9015
▁$50	-9016
▁aug	-9017
▁phr	-9018
▁sle	-9019
Islam	-9020
Semit	-9021
ounds	-9022
range	-9023
world	-9024
▁elev	-9025
▁horr	-9026
uggish	-9027
▁TOKYO	-9028
▁error	-9029
▁inhab	-9030
aunting	-9031
looking	-9032
▁breast	-9033
▁injust	-9034
inations	-9035
▁bombing	-9036
▁debtors	-9037
▁loyalty	-9038
▁passing	-9039
▁records	-9040
▁storage	-9041
▁suffers	-9042
▁defining	-9043
▁diminish	-9044
▁quarters	-9045
ilaterally	-9046
▁dismissed	-9047
▁extending	-9048
▁adequately	-9049
▁sanitation	-9050
▁disparities	-9051
▁expectation	-9052
▁deliberately	-9053
▁Congressional	-9054
▁irresponsible	-9055
ont	-9056
▁AM	-9057
▁ho	-9058
iasm	-9059
izer	-9060
ship	-9061
▁Est	-9062
▁Sam	-9063
▁Wen	-9064
▁dan	-9065
▁syn	-9066
comed	-9067
stone	-9068
ulent	-9069
uties	-9070
▁Debt	-9071
▁Pact	-9072
▁Wars	-9073
▁bulk	-9074
▁seat	-9075
▁wins	-9076
▁fifth	-9077
▁hence	-9078
▁sport	-9079
▁steep	-9080
▁ballot	-9081
▁barrel	-9082
▁bright	-9083
▁filled	-9084
▁phones	-9085
▁sphere	-9086
▁thrive	-9087
▁Sanders	-9088
▁Science	-9089
▁boosted	-9090
▁horizon	-9091
▁venture	-9092
istically	-9093
▁2008-200	-9094
▁diabetes	-9095
▁fighters	-9096
▁depressed	-9097
▁genuinely	-9098
▁correspond	-9099
▁destroying	-9100
▁insurgency	-9101
▁bondholders	-9102
▁connections	-9103
▁protections	-9104
▁indispensable	-9105
▁stabilization	-9106
Le	-9107
OM	-9108
amm	-9109
law	-9110
pel	-9111
▁Us	-9112
anth	-9113
elts	-9114
▁$2.	-9115
▁flu	-9116
▁pil	-9117
isons	-9118
owing	-9119
start	-9120
uated	-9121
▁Move	-9122
▁News	-9123
▁guer	-9124
▁heed	-9125
▁hire	-9126
▁semi	-9127
anship	-9128
irical	-9129
▁Round	-9130
▁allev	-9131
▁immun	-9132
▁named	-9133
igenous	-9134
lovakia	-9135
▁Arafat	-9136
▁differ	-9137
▁dozens	-9138
▁hatred	-9139
▁immune	-9140
▁relied	-9141
▁Leaders	-9142
▁Thaksin	-9143
▁delayed	-9144
▁discred	-9145
▁fastest	-9146
▁partial	-9147
▁reading	-9148
▁silence	-9149
▁village	-9150
▁comprise	-9151
▁contempl	-9152
▁normally	-9153
▁scrutiny	-9154
▁subjects	-9155
▁villages	-9156
▁Peninsula	-9157
▁childhood	-9158
▁departure	-9159
▁secretary	-9160
▁misleading	-9161
▁Infrastructure	-9162
EM	-9163
5%,	-9164
arer	-9165
aret	-9166
aval	-9167
cile	-9168
that	-9169
▁Raj	-9170
ashes	-9171
iants	-9172
▁SOEs	-9173
elfare	-9174
needed	-9175
▁Davos	-9176
▁Would	-9177
▁appet	-9178
▁rises	-9179
▁slump	-9180
levance	-9181
▁aggrav	-9182
▁listen	-9183
▁myriad	-9184
▁convert	-9185
▁warfare	-9186
▁reconcile	-9187
▁sacrifice	-9188
▁Developing	-9189
▁adaptation	-9190
▁boundaries	-9191
▁censorship	-9192
▁disarmament	-9193
▁negotiators	-9194
UR	-9195
yp	-9196
unk	-9197
▁Mo	-9198
imal	-9199
trad	-9200
▁unh	-9201
▁van	-9202
exist	-9203
▁grim	-9204
▁loud	-9205
rators	-9206
unning	-9207
▁actor	-9208
▁ambig	-9209
▁atroc	-9210
▁loose	-9211
▁pione	-9212
iencies	-9213
▁behalf	-9214
▁persec	-9215
▁punish	-9216
▁square	-9217
▁strain	-9218
ognitive	-9219
▁Special	-9220
▁coastal	-9221
▁invited	-9222
▁placing	-9223
▁privacy	-9224
▁Emerging	-9225
▁alarming	-9226
▁distance	-9227
▁freedoms	-9228
▁province	-9229
▁watching	-9230
▁welcomed	-9231
▁exclusion	-9232
▁Throughout	-9233
▁deployment	-9234
▁enthusiasm	-9235
▁exceptions	-9236
▁identities	-9237
▁Corporation	-9238
▁determining	-9239
▁transaction	-9240
▁transforming	-9241
▁automatically	-9242
▁Bor	-9243
▁Yan	-9244
▁vit	-9245
apons	-9246
esity	-9247
overs	-9248
ocaust	-9249
▁Singh	-9250
▁Water	-9251
▁array	-9252
▁marks	-9253
▁plain	-9254
▁Almost	-9255
▁Medved	-9256
▁Saudis	-9257
▁attain	-9258
▁racial	-9259
▁caution	-9260
▁disclos	-9261
▁issuing	-9262
▁located	-9263
▁postwar	-9264
▁spurred	-9265
▁substit	-9266
▁succumb	-9267
▁incompet	-9268
▁reminder	-9269
▁exclusive	-9270
▁imbalance	-9271
▁inherited	-9272
▁Kazakhstan	-9273
▁deterrence	-9274
▁discourage	-9275
▁enrichment	-9276
▁guidelines	-9277
▁remarkably	-9278
▁comfortable	-9279
▁exceptional	-9280
▁projections	-9281
▁deregulation	-9282
▁entrepreneur	-9283
▁facilitating	-9284
ago	-9285
oul	-9286
arus	-9287
irac	-9288
field	-9289
lined	-9290
▁Sach	-9291
▁edit	-9292
▁empt	-9293
▁pron	-9294
▁rand	-9295
▁resh	-9296
terror	-9297
▁chair	-9298
▁fruit	-9299
▁lifet	-9300
▁owned	-9301
achment	-9302
keeping	-9303
▁absurd	-9304
▁deadly	-9305
▁denial	-9306
▁ethics	-9307
▁induce	-9308
▁lately	-9309
▁savers	-9310
▁Belgium	-9311
▁Charter	-9312
▁combine	-9313
▁covered	-9314
▁dubious	-9315
▁engines	-9316
▁knowing	-9317
▁portion	-9318
▁defaults	-9319
▁reckless	-9320
▁budgetary	-9321
▁graduates	-9322
▁overnight	-9323
▁collection	-9324
▁decisively	-9325
▁preserving	-9326
▁substitute	-9327
▁Declaration	-9328
▁unnecessary	-9329
proliferation	-9330
▁Policymakers	-9331
aur	-9332
but	-9333
iam	-9334
ica	-9335
▁8.	-9336
▁Ra	-9337
AVEN	-9338
life	-9339
▁AKP	-9340
▁CIA	-9341
▁Vik	-9342
▁bus	-9343
▁vib	-9344
bonds	-9345
othes	-9346
▁Poor	-9347
▁shot	-9348
states	-9349
▁2030.	-9350
▁Banks	-9351
▁HAVEN	-9352
▁Swiss	-9353
▁bolst	-9354
▁param	-9355
▁peril	-9356
▁retal	-9357
private	-9358
riendly	-9359
▁Chirac	-9360
▁Future	-9361
▁Geneva	-9362
▁entity	-9363
▁fertil	-9364
▁sounds	-9365
▁Michael	-9366
▁charism	-9367
▁emerges	-9368
▁factory	-9369
▁unusual	-9370
▁Medvedev	-9371
▁audience	-9372
▁ignoring	-9373
▁inaction	-9374
▁liberals	-9375
▁spectrum	-9376
▁stagnant	-9377
▁stations	-9378
▁symbolic	-9379
▁whenever	-9380
▁Microsoft	-9381
▁enhancing	-9382
▁extension	-9383
▁gathering	-9384
▁performed	-9385
▁personnel	-9386
▁regulated	-9387
▁witnessed	-9388
▁encourages	-9389
▁incomplete	-9390
▁indigenous	-9391
▁reportedly	-9392
▁distortions	-9393
▁representing	-9394
▁subsequently	-9395
80	-9396
HA	-9397
cho	-9398
elf	-9399
asty	-9400
kans	-9401
▁Six	-9402
▁cow	-9403
▁cry	-9404
▁rot	-9405
otism	-9406
▁Prem	-9407
▁fant	-9408
▁kick	-9409
asting	-9410
omfort	-9411
retion	-9412
▁Catal	-9413
▁label	-9414
▁naval	-9415
▁notes	-9416
▁sched	-9417
▁unite	-9418
anthrop	-9419
▁benign	-9420
▁lender	-9421
▁poised	-9422
▁tested	-9423
arations	-9424
▁Olympic	-9425
▁dissent	-9426
▁revised	-9427
▁spreads	-9428
▁cautious	-9429
▁equipped	-9430
▁feelings	-9431
▁formally	-9432
▁theories	-9433
▁xenophob	-9434
management	-9435
▁conscious	-9436
▁entertain	-9437
▁imperfect	-9438
▁capability	-9439
▁protracted	-9440
▁triggering	-9441
▁citizenship	-9442
▁experiments	-9443
▁reinforcing	-9444
▁aggressively	-9445
▁collectively	-9446
▁environmentally	-9447
RA	-9448
aze	-9449
dad	-9450
esh	-9451
iki	-9452
asse	-9453
gans	-9454
icks	-9455
▁Age	-9456
▁bin	-9457
-2008	-9458
aying	-9459
ghdad	-9460
shore	-9461
▁meat	-9462
▁plot	-9463
▁scre	-9464
eltsin	-9465
▁craft	-9466
▁hikes	-9467
▁rebel	-9468
Israeli	-9469
liberal	-9470
ourcing	-9471
▁Either	-9472
▁debtor	-9473
▁entail	-9474
▁errors	-9475
▁habits	-9476
▁lifted	-9477
▁locked	-9478
▁orient	-9479
▁remitt	-9480
▁string	-9481
▁Belarus	-9482
▁Yeltsin	-9483
▁hegemon	-9484
▁interim	-9485
▁ordered	-9486
▁recruit	-9487
▁separat	-9488
▁Interest	-9489
▁enthusia	-9490
▁outflows	-9491
▁packages	-9492
▁removing	-9493
▁diagnosis	-9494
▁illiberal	-9495
▁conviction	-9496
▁statistical	-9497
▁accomplished	-9498
▁calculations	-9499
▁impoverished	-9500
Ps	-9501
jo	-9502
zh	-9503
FOR	-9504
dig	-9505
mas	-9506
Arab	-9507
JING	-9508
bial	-9509
ukov	-9510
▁Bay	-9511
▁Tok	-9512
▁mel	-9513
▁mil	-9514
iform	-9515
iracy	-9516
▁Pope	-9517
idable	-9518
▁2020.	-9519
▁artic	-9520
▁grass	-9521
▁habit	-9522
▁keeps	-9523
▁metap	-9524
▁neuro	-9525
▁resum	-9526
▁banned	-9527
▁excuse	-9528
▁phrase	-9529
▁repeat	-9530
▁burning	-9531
▁contains	-9532
▁factions	-9533
▁postpone	-9534
▁producer	-9535
▁Egyptians	-9536
▁allocated	-9537
▁automatic	-9538
▁breakdown	-9539
▁equitable	-9540
▁exchanges	-9541
▁indicator	-9542
▁meanwhile	-9543
▁misguided	-9544
▁reforming	-9545
▁restraint	-9546
▁scientist	-9547
vin	-9548
▁La	-9549
olly	-9550
omas	-9551
▁Cor	-9552
▁Jac	-9553
▁Jud	-9554
▁Leg	-9555
▁Nep	-9556
licop	-9557
worth	-9558
▁Rein	-9559
▁Roma	-9560
▁Sant	-9561
▁grab	-9562
▁hate	-9563
▁mudd	-9564
▁thin	-9565
Soviet	-9566
headed	-9567
▁1999,	-9568
▁Index	-9569
▁Sachs	-9570
▁greed	-9571
▁intim	-9572
▁proxy	-9573
▁store	-9574
▁topic	-9575
▁incons	-9576
▁luxury	-9577
▁random	-9578
▁robots	-9579
▁seized	-9580
▁BEIJING	-9581
▁Markets	-9582
▁Project	-9583
▁farming	-9584
▁passion	-9585
▁surveys	-9586
efficient	-9587
enhancing	-9588
financial	-9589
▁backward	-9590
▁diagnost	-9591
▁illusion	-9592
▁receives	-9593
corruption	-9594
▁criminals	-9595
▁rationale	-9596
▁replacing	-9597
▁socialist	-9598
▁compliance	-9599
▁creativity	-9600
▁electronic	-9601
▁formidable	-9602
▁frustrated	-9603
▁influenced	-9604
▁separation	-9605
▁evolutionary	-9606
▁conservatives	-9607
▁Representatives	-9608
25	-9609
ka	-9610
za	-9611
ova	-9612
rol	-9613
erto	-9614
mble	-9615
thal	-9616
ugos	-9617
umer	-9618
uras	-9619
▁CCP	-9620
▁Dam	-9621
▁FDI	-9622
▁NPT	-9623
Qaeda	-9624
oline	-9625
▁Gaul	-9626
▁fees	-9627
▁Nepal	-9628
▁Royal	-9629
▁Tokyo	-9630
▁genet	-9631
▁prest	-9632
▁tells	-9633
▁weigh	-9634
outhern	-9635
ugoslav	-9636
▁Franco	-9637
▁fisher	-9638
▁hiring	-9639
▁ingred	-9640
▁nobody	-9641
▁slogan	-9642
▁Increas	-9643
▁Silicon	-9644
▁Summers	-9645
▁clients	-9646
▁insight	-9647
▁logical	-9648
▁physics	-9649
▁strange	-9650
▁urgency	-9651
▁McKinsey	-9652
▁amounted	-9653
▁daunting	-9654
▁resident	-9655
▁Holocaust	-9656
▁Obviously	-9657
▁assessing	-9658
▁disregard	-9659
▁formation	-9660
▁routinely	-9661
▁peripheral	-9662
▁disruptions	-9663
▁interference	-9664
▁profitability	-9665
.,	-9666
30	-9667
sm	-9668
coh	-9669
▁Av	-9670
▁Ha	-9671
▁IT	-9672
▁Up	-9673
atan	-9674
city	-9675
sett	-9676
▁Hig	-9677
▁Opp	-9678
▁Spe	-9679
▁Too	-9680
ravel	-9681
▁Coal	-9682
orders	-9683
ranted	-9684
▁Chair	-9685
▁accus	-9686
▁bases	-9687
▁breed	-9688
▁cards	-9689
▁dozen	-9690
▁names	-9691
▁swift	-9692
▁tanks	-9693
▁Joseph	-9694
▁Leader	-9695
▁Puerto	-9696
▁Viktor	-9697
▁doctor	-9698
▁handle	-9699
▁pretty	-9700
▁spends	-9701
▁100,000	-9702
▁Nothing	-9703
▁antagon	-9704
▁customs	-9705
▁endorse	-9706
▁intoler	-9707
▁reveals	-9708
estically	-9709
▁Movement	-9710
▁borrowed	-9711
▁incumbent	-9712
▁qualified	-9713
▁permanently	-9714
▁recommended	-9715
▁approximately	-9716
▁participating	-9717
▁possibilities	-9718
SB	-9719
bu	-9720
iph	-9721
▁CN	-9722
aire	-9723
▁Abu	-9724
▁sli	-9725
iates	-9726
▁pund	-9727
erated	-9728
normal	-9729
▁foods	-9730
▁monet	-9731
▁towns	-9732
ariably	-9733
atories	-9734
▁Former	-9735
▁hidden	-9736
▁overly	-9737
▁thinks	-9738
▁unreal	-9739
liaments	-9740
▁Current	-9741
▁authors	-9742
▁closest	-9743
▁revived	-9744
▁satisfy	-9745
▁station	-9746
▁appetite	-9747
▁memories	-9748
▁militias	-9749
▁paradigm	-9750
▁resisted	-9751
▁troubles	-9752
▁broadcast	-9753
▁overthrow	-9754
▁suppliers	-9755
▁abandoning	-9756
▁attracting	-9757
▁presumably	-9758
▁composition	-9759
Ind	-9760
FORD	-9761
agog	-9762
inav	-9763
lass	-9764
wart	-9765
▁unm	-9766
▁wre	-9767
cohol	-9768
▁2030	-9769
▁Near	-9770
▁brib	-9771
▁hier	-9772
▁rice	-9773
rising	-9774
▁cliff	-9775
▁matur	-9776
▁pivot	-9777
▁seeds	-9778
▁socio	-9779
andinav	-9780
induced	-9781
limited	-9782
▁Better	-9783
▁Thanks	-9784
▁abrupt	-9785
▁grants	-9786
▁hazard	-9787
▁rebell	-9788
▁heading	-9789
▁inspire	-9790
▁–&#160;	-9791
developed	-9792
▁blocking	-9793
▁massacre	-9794
▁mistrust	-9795
▁tactical	-9796
▁decentral	-9797
▁dividends	-9798
▁launching	-9799
▁permitted	-9800
▁attributed	-9801
▁originally	-9802
▁conclusions	-9803
▁dangerously	-9804
▁intensified	-9805
▁understands	-9806
▁normalization	-9807
▁democratization	-9808
If	-9809
fur	-9810
zen	-9811
▁26	-9812
bear	-9813
ials	-9814
ques	-9815
wait	-9816
wood	-9817
▁Old	-9818
▁Wil	-9819
▁tap	-9820
World	-9821
asant	-9822
eline	-9823
fifth	-9824
roads	-9825
▁abst	-9826
▁fled	-9827
▁synt	-9828
Brexit	-9829
ularly	-9830
▁2002,	-9831
▁Delhi	-9832
▁Games	-9833
▁perce	-9834
▁vague	-9835
atollah	-9836
version	-9837
▁bacter	-9838
▁favors	-9839
▁mining	-9840
▁solved	-9841
▁Premier	-9842
▁Similar	-9843
▁examine	-9844
▁obesity	-9845
▁prestig	-9846
▁rewards	-9847
▁vibrant	-9848
▁Abdullah	-9849
▁averaged	-9850
▁favorite	-9851
▁frontier	-9852
▁imminent	-9853
▁insights	-9854
▁treating	-9855
▁arbitrary	-9856
▁depending	-9857
▁municipal	-9858
▁provinces	-9859
▁radically	-9860
▁skeptical	-9861
▁grievances	-9862
▁nomination	-9863
▁psychology	-9864
▁reluctance	-9865
▁introducing	-9866
▁parliaments	-9867
▁unification	-9868
▁nationalists	-9869
IL	-9870
Pro	-9871
cep	-9872
too	-9873
ych	-9874
▁2,	-9875
▁Ug	-9876
rock	-9877
▁mir	-9878
after	-9879
ronts	-9880
▁Prom	-9881
▁WWII	-9882
▁grip	-9883
▁wary	-9884
atural	-9885
cially	-9886
▁Henry	-9887
▁games	-9888
▁acquis	-9889
▁bipart	-9890
▁detect	-9891
▁fierce	-9892
▁replic	-9893
▁stages	-9894
▁traded	-9895
▁Balkans	-9896
▁Yanukov	-9897
▁compare	-9898
▁episode	-9899
▁extends	-9900
▁propose	-9901
▁secured	-9902
▁uniform	-9903
▁Marshall	-9904
▁maneuver	-9905
▁preoccup	-9906
▁Companies	-9907
▁empirical	-9908
▁literally	-9909
▁pervasive	-9910
▁Australian	-9911
▁Ironically	-9912
▁fragmented	-9913
▁restricted	-9914
▁outstanding	-9915
▁fluctuations	-9916
▁malnutrition	-9917
▁unilaterally	-9918
▁fragmentation	-9919
▁industrialized	-9920
40	-9921
ida	-9922
ped	-9923
rim	-9924
rian	-9925
attle	-9926
ports	-9927
▁Fear	-9928
▁phot	-9929
ivable	-9930
vation	-9931
▁Basel	-9932
▁Ghana	-9933
▁avert	-9934
▁coerc	-9935
▁enshr	-9936
▁feels	-9937
▁sheer	-9938
attered	-9939
roughts	-9940
▁shrink	-9941
▁silent	-9942
educated	-9943
▁Mohamed	-9944
▁agendas	-9945
▁despair	-9946
▁handful	-9947
▁migrant	-9948
communist	-9949
▁displace	-9950
▁impunity	-9951
▁predomin	-9952
▁Scandinav	-9953
▁advocated	-9954
▁scheduled	-9955
▁Yanukovych	-9956
▁discretion	-9957
▁indication	-9958
▁centralized	-9959
▁marginalized	-9960
!”	-9961
ARC	-9962
aug	-9963
char	-9964
gian	-9965
ilty	-9966
▁Mic	-9967
▁Ste	-9968
▁Tam	-9969
▁hus	-9970
▁twe	-9971
eches	-9972
▁1950	-9973
▁Mali	-9974
▁Mark	-9975
▁Mayn	-9976
▁Soon	-9977
▁Tayy	-9978
orough	-9979
seless	-9980
▁Popul	-9981
▁cited	-9982
▁rigor	-9983
▁Kuwait	-9984
▁Thomas	-9985
friendly	-9986
▁Romania	-9987
▁alcohol	-9988
▁arsenal	-9989
▁enlight	-9990
▁mindset	-9991
▁removal	-9992
▁settled	-9993
effective	-9994
ugoslavia	-9995
▁Military	-9996
▁deserves	-9997
▁morality	-9998
▁opponent	-9999
▁overhang	-10000
▁considers	-10001
▁incapable	-10002
▁outsiders	-10003
▁paralysis	-10004
▁reactions	-10005
▁worsening	-10006
development	-10007
▁coalitions	-10008
▁coordinate	-10009
▁deliberate	-10010
▁invariably	-10011
▁reflection	-10012
▁respective	-10013
▁containment	-10014
▁discredited	-10015
▁perceptions	-10016
▁deterioration	-10017
aba	-10018
▁9%	-10019
avor	-10020
will	-10021
▁150	-10022
▁ped	-10023
ruits	-10024
▁Rome	-10025
▁gest	-10026
▁outp	-10027
▁sick	-10028
arians	-10029
ricane	-10030
▁1989,	-10031
▁2005.	-10032
▁Black	-10033
▁Recep	-10034
▁afflu	-10035
▁likes	-10036
▁reign	-10037
ajority	-10038
capital	-10039
etitive	-10040
raining	-10041
▁Darfur	-10042
▁Tayyip	-10043
▁lacked	-10044
▁strang	-10045
▁worsen	-10046
intended	-10047
▁Maynard	-10048
▁adviser	-10049
▁compact	-10050
▁intimid	-10051
reduction	-10052
▁Agricult	-10053
▁Recently	-10054
▁adjusted	-10055
▁infected	-10056
▁lifetime	-10057
▁refusing	-10058
▁tolerate	-10059
ologically	-10060
▁concerted	-10061
▁crackdown	-10062
▁explosion	-10063
▁reasoning	-10064
▁Protection	-10065
▁disturbing	-10066
▁motivation	-10067
▁philanthrop	-10068
▁practically	-10069
▁probability	-10070
▁transitions	-10071
ki	-10072
▁i	-10073
gra	-10074
rov	-10075
alls	-10076
aped	-10077
bean	-10078
ests	-10079
▁Ser	-10080
▁tub	-10081
▁uni	-10082
andhi	-10083
pered	-10084
value	-10085
▁Nord	-10086
▁PBOC	-10087
▁clar	-10088
▁mant	-10089
▁mild	-10090
▁sale	-10091
▁unav	-10092
uating	-10093
▁Laden	-10094
▁bless	-10095
▁drast	-10096
▁outwe	-10097
▁rests	-10098
▁scene	-10099
ography	-10100
▁beings	-10101
▁buyers	-10102
▁fright	-10103
▁nomine	-10104
▁vastly	-10105
▁Baghdad	-10106
▁denying	-10107
▁essence	-10108
▁futures	-10109
▁helpful	-10110
▁lifting	-10111
▁origins	-10112
▁readily	-10113
▁sitting	-10114
▁stalled	-10115
▁Administ	-10116
▁Southern	-10117
▁decrease	-10118
▁droughts	-10119
▁gasoline	-10120
▁mathemat	-10121
▁mistaken	-10122
▁sluggish	-10123
orestation	-10124
▁empowered	-10125
▁unleashed	-10126
▁sustaining	-10127
withstanding	-10128
▁complacency	-10129
▁interaction	-10130
70	-10131
irs	-10132
pre	-10133
sky	-10134
▁Ol	-10135
▁et	-10136
onic	-10137
▁Rem	-10138
▁esp	-10139
Frank	-10140
icket	-10141
itant	-10142
▁1989	-10143
▁AIIB	-10144
▁Dodd	-10145
▁Mold	-10146
▁Prov	-10147
▁Zeal	-10148
▁aren	-10149
▁blue	-10150
▁cere	-10151
▁shed	-10152
funded	-10153
▁Annan	-10154
▁Haiti	-10155
▁Scott	-10156
▁Sinai	-10157
▁climb	-10158
▁empty	-10159
▁mired	-10160
▁music	-10161
▁reson	-10162
manship	-10163
riminal	-10164
▁Twenty	-10165
financed	-10166
▁Gazprom	-10167
▁council	-10168
▁endless	-10169
▁extract	-10170
▁stagger	-10171
▁activist	-10172
▁imagined	-10173
▁instinct	-10174
▁renegoti	-10175
▁speeches	-10176
▁thorough	-10177
▁Ayatollah	-10178
▁Socialist	-10179
▁combating	-10180
▁indicated	-10181
▁accessible	-10182
▁autocratic	-10183
▁ecological	-10184
▁overcoming	-10185
▁undergoing	-10186
▁continental	-10187
▁remittances	-10188
án	-10189
big	-10190
ela	-10191
epr	-10192
nov	-10193
▁Pi	-10194
azon	-10195
idal	-10196
▁Has	-10197
▁fro	-10198
derón	-10199
fired	-10200
▁Cost	-10201
▁nost	-10202
▁ship	-10203
▁clout	-10204
▁euros	-10205
▁prize	-10206
▁throw	-10207
▁wield	-10208
▁Asians	-10209
▁culmin	-10210
▁defect	-10211
▁gotten	-10212
▁recipe	-10213
affected	-10214
▁rethink	-10215
▁subsidy	-10216
▁Politics	-10217
▁Xiaoping	-10218
▁episodes	-10219
▁location	-10220
▁suppress	-10221
▁tangible	-10222
▁believing	-10223
▁cognitive	-10224
▁declaring	-10225
▁ignorance	-10226
▁appearance	-10227
▁atrocities	-10228
▁renewables	-10229
▁advertising	-10230
▁breakthroughs	-10231
UL	-10232
mal	-10233
▁80	-10234
burg	-10235
disc	-10236
▁WHO	-10237
▁peg	-10238
▁rum	-10239
ceans	-10240
cture	-10241
human	-10242
▁aver	-10243
▁elig	-10244
▁mega	-10245
▁tone	-10246
German	-10247
pelled	-10248
usions	-10249
▁Exper	-10250
▁Guant	-10251
▁clash	-10252
▁drone	-10253
▁fatal	-10254
▁march	-10255
▁Refuge	-10256
▁desert	-10257
▁duties	-10258
▁pillar	-10259
▁poison	-10260
location	-10261
▁Private	-10262
▁Swedish	-10263
▁Zealand	-10264
▁letting	-10265
▁monthly	-10266
▁pundits	-10267
▁rampant	-10268
▁Calderón	-10269
▁ceasefire	-10270
▁generates	-10271
▁perfectly	-10272
▁withstand	-10273
▁automation	-10274
▁bipartisan	-10275
▁cosmopolit	-10276
▁underground	-10277
▁Specifically	-10278
▁longstanding	-10279
▁manufactured	-10280
▁disappointing	-10281
▁underestimated	-10282
Af	-10283
TT	-10284
iza	-10285
jan	-10286
▁Rio	-10287
itous	-10288
▁2020	-10289
▁Budd	-10290
▁OPEC	-10291
▁Open	-10292
▁aged	-10293
▁boss	-10294
▁cler	-10295
▁damp	-10296
▁park	-10297
▁sums	-10298
arrass	-10299
assion	-10300
ushima	-10301
▁Panel	-10302
▁bombs	-10303
▁inhib	-10304
▁items	-10305
▁touch	-10306
atively	-10307
▁Action	-10308
▁Gandhi	-10309
▁genome	-10310
▁Johnson	-10311
▁outlets	-10312
▁solving	-10313
▁therapy	-10314
▁tougher	-10315
roductive	-10316
▁doubling	-10317
▁Inflation	-10318
▁academics	-10319
▁allegedly	-10320
▁defensive	-10321
▁insisting	-10322
▁intensify	-10323
▁maintains	-10324
▁systematic	-10325
▁incremental	-10326
▁resolutions	-10327
▁domestically	-10328
▁demonstrating	-10329
▁multilateralism	-10330
EF	-10331
SR	-10332
net	-10333
ski	-10334
▁$9	-10335
▁ES	-10336
iots	-10337
▁AMR	-10338
▁Ecu	-10339
▁asc	-10340
▁fab	-10341
▁voc	-10342
rance	-10343
richt	-10344
▁Fail	-10345
▁Rico	-10346
▁ampl	-10347
▁shel	-10348
▁2001.	-10349
▁Buddh	-10350
▁Smith	-10351
▁civic	-10352
▁effic	-10353
▁erode	-10354
▁reaff	-10355
▁shoot	-10356
herence	-10357
ordable	-10358
welfare	-10359
▁Forces	-10360
▁arrive	-10361
▁floods	-10362
▁hoping	-10363
▁ideals	-10364
▁inward	-10365
▁misman	-10366
▁plight	-10367
▁potent	-10368
▁sevent	-10369
▁tenure	-10370
astricht	-10371
▁Affairs	-10372
▁obliged	-10373
▁restaur	-10374
▁smoking	-10375
▁symptom	-10376
▁Everyone	-10377
▁emotions	-10378
▁enforced	-10379
▁equities	-10380
▁evolving	-10381
▁excesses	-10382
▁initiate	-10383
▁prompted	-10384
▁ratified	-10385
▁referred	-10386
▁undercut	-10387
▁addresses	-10388
▁intensity	-10389
▁documented	-10390
▁enthusiast	-10391
▁heightened	-10392
▁militarily	-10393
▁skepticism	-10394
▁elimination	-10395
▁replacement	-10396
▁indefinitely	-10397
▁telecommunic	-10398
▁Revolutionary	-10399
▁interdependence	-10400
/1	-10401
As	-10402
awn	-10403
omy	-10404
uay	-10405
▁fr	-10406
▁35%	-10407
▁75%	-10408
▁Att	-10409
▁Dem	-10410
▁NCD	-10411
▁aro	-10412
skill	-10413
ungry	-10414
ushed	-10415
▁Home	-10416
▁Imag	-10417
▁Stan	-10418
▁ring	-10419
ensity	-10420
etting	-10421
ferent	-10422
social	-10423
▁Nazis	-10424
▁blunt	-10425
▁conqu	-10426
▁robot	-10427
athered	-10428
quarter	-10429
▁Arctic	-10430
▁Gaulle	-10431
▁Uganda	-10432
▁devise	-10433
▁eroded	-10434
▁insurg	-10435
▁marine	-10436
▁prejud	-10437
▁quotas	-10438
▁season	-10439
▁credits	-10440
▁militar	-10441
▁offices	-10442
▁trapped	-10443
▁unravel	-10444
insurance	-10445
▁Exchange	-10446
▁Ministry	-10447
▁invented	-10448
▁mainland	-10449
▁revision	-10450
▁teaching	-10451
▁Abenomics	-10452
▁embracing	-10453
▁neglected	-10454
▁satellite	-10455
▁schooling	-10456
▁struggled	-10457
▁Venezuelan	-10458
▁comprising	-10459
▁sentiments	-10460
▁controversy	-10461
▁disappeared	-10462
▁exemplified	-10463
▁technocratic	-10464
▁assassination	-10465
▁beneficiaries	-10466
JP	-10467
PJ	-10468
apt	-10469
arc	-10470
ken	-10471
nes	-10472
ros	-10473
upp	-10474
▁Ko	-10475
▁Ox	-10476
eded	-10477
good	-10478
mare	-10479
▁Ach	-10480
▁Hug	-10481
▁Kir	-10482
▁dry	-10483
asure	-10484
digit	-10485
ercul	-10486
grade	-10487
great	-10488
▁Alan	-10489
▁Oslo	-10490
▁monu	-10491
▁rage	-10492
▁unth	-10493
ighted	-10494
▁Guard	-10495
▁Moral	-10496
▁embod	-10497
▁guess	-10498
▁hypoc	-10499
▁shame	-10500
▁spear	-10501
autiful	-10502
▁Budget	-10503
▁Common	-10504
▁Marine	-10505
▁McCain	-10506
▁Prince	-10507
▁arises	-10508
▁deputy	-10509
▁enroll	-10510
▁masses	-10511
▁wasted	-10512
▁existed	-10513
▁flowing	-10514
▁harness	-10515
erculosis	-10516
regulated	-10517
▁assembly	-10518
▁category	-10519
▁commonly	-10520
▁deciding	-10521
▁disputed	-10522
▁Fukushima	-10523
▁dedicated	-10524
▁historian	-10525
▁necessity	-10526
▁proposing	-10527
▁upgrading	-10528
▁Maastricht	-10529
▁Yugoslavia	-10530
▁inherently	-10531
▁safeguards	-10532
▁assessments	-10533
▁facilitated	-10534
▁revelations	-10535
▁conversation	-10536
▁vulnerabilities	-10537
27	-10538
BC	-10539
CH	-10540
▁om	-10541
iors	-10542
▁Hel	-10543
▁Tob	-10544
▁dil	-10545
▁lit	-10546
iably	-10547
isive	-10548
▁Kash	-10549
▁Lula	-10550
▁MDGs	-10551
▁narr	-10552
▁tech	-10553
incial	-10554
ournal	-10555
▁Cuban	-10556
▁Hindu	-10557
▁bleak	-10558
▁overe	-10559
▁voter	-10560
iversal	-10561
▁adhere	-10562
▁drives	-10563
▁fronts	-10564
▁metric	-10565
▁ostens	-10566
▁switch	-10567
icularly	-10568
▁Banking	-10569
▁Ecuador	-10570
▁booming	-10571
▁emulate	-10572
▁founder	-10573
▁holders	-10574
▁motives	-10575
▁pillars	-10576
▁prudent	-10577
▁studied	-10578
▁trusted	-10579
dominated	-10580
▁Franklin	-10581
▁applying	-10582
▁lobbying	-10583
▁offshore	-10584
▁oligarch	-10585
▁prevents	-10586
▁quantity	-10587
▁survived	-10588
▁universe	-10589
celeration	-10590
▁certainty	-10591
▁forefront	-10592
▁autonomous	-10593
▁liberalism	-10594
▁ministries	-10595
▁supplement	-10596
▁concentrate	-10597
▁implication	-10598
▁deforestation	-10599
▁uncertainties	-10600
-4	-10601
afe	-10602
reb	-10603
rev	-10604
uble	-10605
▁Ice	-10606
achev	-10607
apter	-10608
board	-10609
emate	-10610
speed	-10611
vigor	-10612
▁Ever	-10613
▁Prop	-10614
▁baby	-10615
enable	-10616
inians	-10617
▁1950’	-10618
▁2000.	-10619
▁Offic	-10620
▁Secur	-10621
▁booms	-10622
▁cruel	-10623
▁inaug	-10624
▁ports	-10625
▁preca	-10626
ighting	-10627
▁Martin	-10628
▁Regard	-10629
▁embass	-10630
▁oceans	-10631
▁stockp	-10632
▁triple	-10633
▁apparat	-10634
▁appeals	-10635
▁breakup	-10636
▁conting	-10637
▁helicop	-10638
▁inhabit	-10639
▁suscept	-10640
▁unequal	-10641
izational	-10642
▁disposal	-10643
▁incident	-10644
▁organize	-10645
▁shocking	-10646
&#45;&#45;	-10647
▁Investors	-10648
▁documents	-10649
▁statehood	-10650
▁substance	-10651
▁narratives	-10652
▁staggering	-10653
▁communicate	-10654
▁entrepreneurial	-10655
unc	-10656
euro	-10657
kind	-10658
uepr	-10659
▁Exp	-10660
▁Jim	-10661
enter	-10662
ousse	-10663
phone	-10664
umbai	-10665
▁1991	-10666
▁2017	-10667
▁Care	-10668
▁Mikh	-10669
▁Youn	-10670
▁cush	-10671
▁issu	-10672
▁loos	-10673
▁nerv	-10674
perial	-10675
▁Anglo	-10676
▁Could	-10677
▁Event	-10678
▁River	-10679
▁dealt	-10680
▁envis	-10681
▁panel	-10682
finance	-10683
ievable	-10684
porting	-10685
tenance	-10686
umbling	-10687
▁Confuc	-10688
▁Syriza	-10689
▁expose	-10690
▁guided	-10691
▁patron	-10692
▁physic	-10693
▁rememb	-10694
▁scores	-10695
▁soccer	-10696
resolved	-10697
▁Earlier	-10698
▁Jacques	-10699
▁coupled	-10700
▁durable	-10701
▁expects	-10702
▁journey	-10703
▁minutes	-10704
▁pressed	-10705
▁strains	-10706
▁friendly	-10707
▁instance	-10708
especially	-10709
▁embarrass	-10710
▁infection	-10711
▁liberties	-10712
▁marketing	-10713
▁relevance	-10714
▁somewhere	-10715
▁strengths	-10716
▁ambassador	-10717
▁continuous	-10718
▁processing	-10719
▁accommodate	-10720
▁limitations	-10721
▁maintenance	-10722
▁trafficking	-10723
▁exploitation	-10724
▁deteriorating	-10725
▁diversification	-10726
IR	-10727
SF	-10728
bul	-10729
due	-10730
exp	-10731
case	-10732
fulf	-10733
igil	-10734
osni	-10735
▁Mem	-10736
▁Yas	-10737
aming	-10738
icago	-10739
ienna	-10740
▁1999	-10741
▁Gorb	-10742
▁Marg	-10743
▁Stra	-10744
▁Thai	-10745
▁blog	-10746
▁feet	-10747
▁urge	-10748
ibbean	-10749
reason	-10750
▁Hosni	-10751
▁divor	-10752
▁exped	-10753
▁forum	-10754
▁fract	-10755
▁score	-10756
▁swing	-10757
▁urged	-10758
▁video	-10759
acities	-10760
conserv	-10761
ignific	-10762
ortions	-10763
▁Amazon	-10764
▁Castro	-10765
▁affair	-10766
▁giants	-10767
▁illust	-10768
▁revolt	-10769
▁unhapp	-10770
▁wishes	-10771
changing	-10772
▁Goldman	-10773
▁Syrians	-10774
▁battles	-10775
▁bearing	-10776
▁circles	-10777
▁discern	-10778
▁endured	-10779
▁ignores	-10780
▁linking	-10781
▁morally	-10782
olidarity	-10783
▁Medicare	-10784
▁clearing	-10785
▁exceeded	-10786
▁flooding	-10787
▁literacy	-10788
▁respects	-10789
▁signaled	-10790
▁tackling	-10791
▁Caribbean	-10792
▁Eurobonds	-10793
▁exercises	-10794
▁exploited	-10795
▁healthier	-10796
▁plummeted	-10797
▁violation	-10798
▁&#45;&#45;	-10799
▁behavioral	-10800
▁emphasizes	-10801
▁insistence	-10802
▁performing	-10803
▁proclaimed	-10804
▁compromises	-10805
▁eradication	-10806
▁residential	-10807
▁indifference	-10808
▁intensifying	-10809
▁Environmental	-10810
-9	-10811
aku	-10812
ben	-10813
obs	-10814
via	-10815
who	-10816
▁9.	-10817
▁AT	-10818
feld	-10819
namo	-10820
role	-10821
▁Ott	-10822
▁Was	-10823
▁cra	-10824
ipras	-10825
ánamo	-10826
▁Cels	-10827
▁Crit	-10828
▁Main	-10829
▁intu	-10830
▁walk	-10831
dollar	-10832
▁arrog	-10833
▁borne	-10834
▁cripp	-10835
▁erect	-10836
▁prone	-10837
▁redef	-10838
diction	-10839
▁Libyan	-10840
▁Manuel	-10841
▁Nearly	-10842
▁Review	-10843
▁conced	-10844
▁guilty	-10845
▁oversh	-10846
▁suited	-10847
▁Celsius	-10848
▁Certain	-10849
▁Imagine	-10850
▁Tsipras	-10851
▁clarity	-10852
▁clearer	-10853
▁harvest	-10854
▁inherit	-10855
▁mineral	-10856
▁pockets	-10857
resistant	-10858
▁activism	-10859
▁daughter	-10860
▁feedback	-10861
▁guerrill	-10862
▁killings	-10863
▁militant	-10864
▁outweigh	-10865
▁presents	-10866
▁segments	-10867
▁sweeping	-10868
▁Gorbachev	-10869
▁champions	-10870
▁correctly	-10871
▁excellent	-10872
▁fertility	-10873
▁injustice	-10874
▁Ukrainians	-10875
▁preventive	-10876
▁provincial	-10877
▁unresolved	-10878
▁destination	-10879
▁humiliation	-10880
▁identifying	-10881
▁legislators	-10882
▁philosopher	-10883
▁technocrats	-10884
ps	-10885
”;	-10886
isk	-10887
exas	-10888
ften	-10889
ills	-10890
raid	-10891
▁$40	-10892
▁Dig	-10893
▁ICT	-10894
▁Liu	-10895
▁bea	-10896
▁ham	-10897
▁haw	-10898
ricts	-10899
roika	-10900
▁peer	-10901
▁rapp	-10902
▁reap	-10903
people	-10904
▁Maybe	-10905
▁Techn	-10906
▁infer	-10907
▁irrig	-10908
▁maybe	-10909
▁smugg	-10910
▁swept	-10911
ologist	-10912
reating	-10913
weapons	-10914
▁Baltic	-10915
▁Mumbai	-10916
▁breaks	-10917
▁freeze	-10918
▁native	-10919
▁outset	-10920
▁reserv	-10921
▁rivers	-10922
▁sensit	-10923
▁tribun	-10924
▁winter	-10925
▁Between	-10926
▁Chicago	-10927
▁Mandela	-10928
▁Mikhail	-10929
▁assured	-10930
▁destiny	-10931
▁gravity	-10932
▁miracle	-10933
▁reaches	-10934
▁utterly	-10935
▁vehicle	-10936
itization	-10937
▁Children	-10938
▁drinking	-10939
▁integral	-10940
▁traction	-10941
▁Christmas	-10942
▁troubling	-10943
▁Guantánamo	-10944
▁attraction	-10945
▁casualties	-10946
▁cumulative	-10947
▁fulfilling	-10948
▁indirectly	-10949
▁overlooked	-10950
▁preference	-10951
▁contributes	-10952
▁enlightened	-10953
▁exaggerated	-10954
▁imagination	-10955
▁theoretical	-10956
▁totalitarian	-10957
AL	-10958
iy	-10959
Cla	-10960
emy	-10961
non	-10962
sub	-10963
ule	-10964
away	-10965
bert	-10966
clos	-10967
iege	-10968
obil	-10969
ulum	-10970
▁Com	-10971
▁Tea	-10972
▁Val	-10973
▁gal	-10974
▁sat	-10975
eding	-10976
issue	-10977
ivial	-10978
wered	-10979
▁1995	-10980
▁Hugo	-10981
▁Well	-10982
▁Wild	-10983
▁gang	-10984
Claude	-10985
Muslim	-10986
roleum	-10987
▁2030,	-10988
▁Canad	-10989
▁Renzi	-10990
▁bears	-10991
▁brave	-10992
▁embar	-10993
▁quasi	-10994
▁spark	-10995
economy	-10996
elected	-10997
ication	-10998
inkable	-10999
rategic	-11000
ustomed	-11001
▁anyway	-11002
▁bluepr	-11003
▁dreams	-11004
▁electr	-11005
▁nostal	-11006
▁Journal	-11007
▁Moldova	-11008
▁cynical	-11009
▁desired	-11010
▁margins	-11011
▁provoke	-11012
icultural	-11013
rudential	-11014
▁Reinhart	-11015
▁abundant	-11016
▁consists	-11017
▁irrevers	-11018
▁missions	-11019
▁proposes	-11020
▁scarcity	-11021
▁selected	-11022
▁stressed	-11023
▁celebrate	-11024
▁districts	-11025
▁everybody	-11026
▁execution	-11027
▁fostering	-11028
▁mentioned	-11029
▁nightmare	-11030
▁rejecting	-11031
▁unlimited	-11032
otechnology	-11033
▁escalating	-11034
▁privileged	-11035
▁suspicious	-11036
▁unintended	-11037
▁subsidiaries	-11038
200	-11039
lie	-11040
rey	-11041
amac	-11042
rend	-11043
▁Dub	-11044
▁Ext	-11045
▁Rog	-11046
▁odd	-11047
acked	-11048
child	-11049
ellen	-11050
itage	-11051
▁Cauc	-11052
▁Deal	-11053
▁Fram	-11054
▁Zhou	-11055
▁medi	-11056
▁west	-11057
asions	-11058
urning	-11059
▁1997,	-11060
▁Money	-11061
▁Small	-11062
▁Texas	-11063
▁calam	-11064
▁doors	-11065
▁floor	-11066
▁reper	-11067
amacare	-11068
ussions	-11069
▁Scient	-11070
▁Vienna	-11071
▁assemb	-11072
▁consec	-11073
▁curric	-11074
▁firing	-11075
▁insure	-11076
▁spoken	-11077
▁thwart	-11078
illusion	-11079
ineering	-11080
▁anytime	-11081
▁hardest	-11082
▁lowered	-11083
▁maximum	-11084
▁optimal	-11085
▁patents	-11086
▁covering	-11087
▁hardship	-11088
▁instruct	-11089
▁maternal	-11090
▁operates	-11091
▁reminded	-11092
▁accompany	-11093
▁assertive	-11094
▁attacking	-11095
▁beautiful	-11096
▁compelled	-11097
▁describes	-11098
▁orthodoxy	-11099
▁suspended	-11100
denominated	-11101
functioning	-11102
▁accurately	-11103
▁advocating	-11104
▁anticipate	-11105
▁committing	-11106
▁containing	-11107
▁distribute	-11108
▁homeowners	-11109
▁insolvency	-11110
▁ostensibly	-11111
▁peacefully	-11112
▁conditional	-11113
▁contentious	-11114
▁immunization	-11115
▁Administration	-11116
-5	-11117
WF	-11118
TAN	-11119
ads	-11120
kew	-11121
▁–&	-11122
ania	-11123
▁DPJ	-11124
▁Dal	-11125
▁ath	-11126
▁mad	-11127
ringe	-11128
roche	-11129
uming	-11130
▁1992	-11131
▁Biny	-11132
▁Left	-11133
▁akin	-11134
▁jail	-11135
▁plag	-11136
▁sist	-11137
esbank	-11138
lywood	-11139
requis	-11140
school	-11141
ushing	-11142
▁Parad	-11143
▁delic	-11144
▁exhib	-11145
▁fired	-11146
▁movie	-11147
▁pregn	-11148
▁royal	-11149
ropical	-11150
▁Rousse	-11151
▁counts	-11152
▁fabric	-11153
▁lethal	-11154
▁repeal	-11155
▁shield	-11156
breaking	-11157
capacity	-11158
▁Iceland	-11159
▁Workers	-11160
▁ensures	-11161
▁nervous	-11162
▁nominee	-11163
▁penalty	-11164
▁regards	-11165
▁specter	-11166
▁totally	-11167
▁Margaret	-11168
▁Nowadays	-11169
▁Scottish	-11170
▁centrist	-11171
▁concepts	-11172
▁examined	-11173
▁preceded	-11174
▁reviving	-11175
▁salaries	-11176
▁collected	-11177
▁distorted	-11178
▁insolvent	-11179
▁mandatory	-11180
▁secession	-11181
▁stalemate	-11182
▁surrender	-11183
▁collapsing	-11184
▁escalation	-11185
▁journalist	-11186
▁responsive	-11187
▁Politicians	-11188
▁publication	-11189
establishment	-11190
▁disagreement	-11191
▁interactions	-11192
▁dictatorships	-11193
▁disagreements	-11194
▁strategically	-11195
fty	-11196
lan	-11197
opt	-11198
▁BO	-11199
▁ax	-11200
anch	-11201
neum	-11202
uded	-11203
▁($1	-11204
▁Dec	-11205
▁hij	-11206
angan	-11207
eness	-11208
ribed	-11209
winds	-11210
▁Acad	-11211
▁boys	-11212
▁copy	-11213
▁hast	-11214
▁nutr	-11215
acious	-11216
itated	-11217
risome	-11218
▁Monti	-11219
▁Start	-11220
▁aston	-11221
▁defer	-11222
▁irony	-11223
▁magaz	-11224
▁onset	-11225
▁secre	-11226
▁tyran	-11227
▁vigil	-11228
erating	-11229
itement	-11230
▁boards	-11231
▁cement	-11232
▁influx	-11233
▁lesser	-11234
▁regret	-11235
▁thrown	-11236
▁fallout	-11237
▁husband	-11238
▁oversee	-11239
▁renewal	-11240
▁rivalry	-11241
▁transit	-11242
▁trivial	-11243
rochement	-11244
▁affluent	-11245
▁consumed	-11246
▁metaphor	-11247
▁pointing	-11248
▁scandals	-11249
▁thriving	-11250
▁violated	-11251
▁geography	-11252
▁mobilized	-11253
▁reinvigor	-11254
▁worrisome	-11255
▁compounded	-11256
▁diagnostic	-11257
▁recipients	-11258
▁remembered	-11259
▁correlation	-11260
▁interpreted	-11261
▁personality	-11262
▁jurisdiction	-11263
▁underestimate	-11264
TB	-11265
vo	-11266
▁¥	-11267
ano	-11268
iar	-11269
usp	-11270
asus	-11271
aved	-11272
blem	-11273
seen	-11274
umes	-11275
▁GNP	-11276
▁Orb	-11277
▁etc	-11278
▁fer	-11279
5,000	-11280
ammar	-11281
blown	-11282
cular	-11283
roots	-11284
▁100%	-11285
▁1998	-11286
▁dual	-11287
▁vind	-11288
determ	-11289
manuel	-11290
utable	-11291
▁1979,	-11292
▁1990,	-11293
▁2006.	-11294
▁2050,	-11295
▁NAFTA	-11296
▁Using	-11297
▁chess	-11298
▁cloud	-11299
▁color	-11300
▁frict	-11301
▁intra	-11302
▁sugar	-11303
▁trees	-11304
service	-11305
▁Michel	-11306
▁Yellen	-11307
▁judged	-11308
▁makers	-11309
▁overst	-11310
▁ranked	-11311
▁unjust	-11312
▁Equally	-11313
▁Muammar	-11314
▁broaden	-11315
▁contend	-11316
▁embargo	-11317
▁hearing	-11318
▁hostage	-11319
▁passage	-11320
▁watched	-11321
▁Binyamin	-11322
▁Italians	-11323
▁comments	-11324
▁determin	-11325
▁persists	-11326
▁sentence	-11327
▁talented	-11328
▁thinkers	-11329
▁democrats	-11330
▁reformers	-11331
▁revealing	-11332
▁socialism	-11333
▁suspected	-11334
▁uncomfort	-11335
information	-11336
▁Bundesbank	-11337
▁historians	-11338
▁portfolios	-11339
▁appointment	-11340
▁businessmen	-11341
▁destabilize	-11342
▁restoration	-11343
▁stimulating	-11344
▁unrealistic	-11345
▁connectivity	-11346
▁cosmopolitan	-11347
▁complementary	-11348
▁contradictory	-11349
▁unfortunately	-11350
kh	-11351
uh	-11352
ows	-11353
rah	-11354
arre	-11355
icit	-11356
ilip	-11357
moon	-11358
prot	-11359
rush	-11360
scar	-11361
uits	-11362
▁12%	-11363
▁Ret	-11364
▁Ten	-11365
▁Tim	-11366
amble	-11367
borne	-11368
peror	-11369
rones	-11370
▁1979	-11371
▁Anti	-11372
▁Flor	-11373
▁Silk	-11374
▁Tian	-11375
▁hang	-11376
▁inse	-11377
▁leap	-11378
▁rush	-11379
▁tear	-11380
fiscal	-11381
solete	-11382
▁Alban	-11383
▁Euras	-11384
▁Force	-11385
▁Short	-11386
▁exert	-11387
▁inert	-11388
▁overl	-11389
▁theme	-11390
nuclear	-11391
▁Across	-11392
▁Modern	-11393
▁commem	-11394
▁exempt	-11395
▁remedy	-11396
▁storms	-11397
resource	-11398
▁Society	-11399
▁elusive	-11400
▁foolish	-11401
▁forming	-11402
▁inspect	-11403
▁reacted	-11404
prisingly	-11405
▁customer	-11406
▁exporter	-11407
▁headline	-11408
▁linkages	-11409
▁psychiat	-11410
▁radicals	-11411
▁strictly	-11412
▁uprising	-11413
▁comprises	-11414
▁exceeding	-11415
▁exhausted	-11416
▁Regardless	-11417
▁accumulate	-11418
▁calculated	-11419
▁dimensions	-11420
▁mitigation	-11421
▁accusations	-11422
▁materialize	-11423
▁shareholder	-11424
▁unthinkable	-11425
Proliferation	-11426
▁organizational	-11427
DB	-11428
dis	-11429
iri	-11430
isi	-11431
pts	-11432
rip	-11433
Iran	-11434
drop	-11435
pace	-11436
ules	-11437
▁Ide	-11438
▁Mel	-11439
fuels	-11440
icked	-11441
▁1967	-11442
▁Bulg	-11443
▁Snow	-11444
▁band	-11445
▁epic	-11446
▁impe	-11447
astics	-11448
ulture	-11449
▁2,000	-11450
▁Advis	-11451
▁Barro	-11452
▁Orbán	-11453
▁boast	-11454
Qaddafi	-11455
onymous	-11456
▁Credit	-11457
▁branch	-11458
▁clever	-11459
▁cultiv	-11460
▁miscon	-11461
▁misery	-11462
▁timely	-11463
▁visits	-11464
Japanese	-11465
balanced	-11466
regional	-11467
▁ensuing	-11468
▁fortune	-11469
▁officer	-11470
▁pledges	-11471
▁procure	-11472
▁rebound	-11473
▁tighter	-11474
dependent	-11475
▁efficacy	-11476
▁modified	-11477
▁obtained	-11478
▁prestige	-11479
▁reactors	-11480
▁wherever	-11481
▁Hungarian	-11482
▁broadband	-11483
▁channeled	-11484
▁prerequis	-11485
▁complained	-11486
▁internally	-11487
▁profoundly	-11488
▁rebuilding	-11489
▁proposition	-11490
▁speculators	-11491
▁vaccination	-11492
▁explanations	-11493
▁peacekeeping	-11494
▁perpetrators	-11495
▁rapprochement	-11496
▁reunification	-11497
▁unwillingness	-11498
▁systematically	-11499
ato	-11500
een	-11501
▁ox	-11502
aint	-11503
help	-11504
keep	-11505
pora	-11506
quir	-11507
▁11%	-11508
▁9/1	-11509
▁Fox	-11510
▁Lag	-11511
▁Pat	-11512
▁Tig	-11513
eling	-11514
found	-11515
rants	-11516
sider	-11517
▁Kiss	-11518
▁Zion	-11519
▁echo	-11520
▁forb	-11521
▁hamp	-11522
▁unim	-11523
member	-11524
struct	-11525
▁1991,	-11526
▁holid	-11527
▁rever	-11528
▁river	-11529
▁sober	-11530
▁spike	-11531
▁swaps	-11532
▁tries	-11533
▁veget	-11534
itizens	-11535
oidable	-11536
seekers	-11537
▁Altern	-11538
▁betray	-11539
▁detail	-11540
▁evolve	-11541
▁newcom	-11542
▁ratify	-11543
▁rounds	-11544
▁safely	-11545
▁speaks	-11546
▁writer	-11547
▁acquies	-11548
▁analogy	-11549
▁careers	-11550
▁evasion	-11551
▁leftist	-11552
▁manager	-11553
▁permits	-11554
▁revital	-11555
▁stepped	-11556
▁unleash	-11557
▁violate	-11558
elligence	-11559
political	-11560
▁Caucasus	-11561
▁Olympics	-11562
▁Rousseff	-11563
▁impeding	-11564
▁opinions	-11565
▁perceive	-11566
▁resigned	-11567
▁denounced	-11568
▁explosive	-11569
▁accustomed	-11570
▁competence	-11571
▁constraint	-11572
▁convenient	-11573
▁distressed	-11574
▁enormously	-11575
▁personally	-11576
▁repressive	-11577
▁surrounded	-11578
▁consecutive	-11579
▁emphasizing	-11580
▁restricting	-11581
▁undertaking	-11582
aya	-11583
bec	-11584
”).	-11585
enda	-11586
nest	-11587
ourg	-11588
stop	-11589
yles	-11590
▁400	-11591
▁Bah	-11592
▁Cro	-11593
▁III	-11594
▁Imm	-11595
▁jun	-11596
iency	-11597
imity	-11598
osity	-11599
yield	-11600
▁Adam	-11601
▁Step	-11602
▁adds	-11603
▁glut	-11604
▁ride	-11605
▁wasn	-11606
▁woes	-11607
▁Peter	-11608
▁drama	-11609
▁fever	-11610
▁pecul	-11611
▁ships	-11612
▁slack	-11613
▁compel	-11614
▁devote	-11615
▁doomed	-11616
▁hearts	-11617
▁resume	-11618
▁tended	-11619
▁virtue	-11620
▁Florida	-11621
▁anxious	-11622
▁derived	-11623
▁fleeing	-11624
▁payroll	-11625
▁tighten	-11626
▁viewing	-11627
▁Contrary	-11628
▁evaluate	-11629
▁gathered	-11630
▁skeptics	-11631
▁exporting	-11632
▁incidents	-11633
▁modernize	-11634
▁organisms	-11635
▁Solidarity	-11636
▁annexation	-11637
▁capacities	-11638
▁mitigating	-11639
▁pragmatism	-11640
▁relentless	-11641
▁successive	-11642
▁witnessing	-11643
▁allegations	-11644
▁conferences	-11645
▁description	-11646
▁forthcoming	-11647
▁intelligent	-11648
▁associations	-11649
▁environments	-11650
▁prescription	-11651
▁constituencies	-11652
▁fundamentalism	-11653
ED	-11654
PM	-11655
ady	-11656
anz	-11657
▁Lu	-11658
▁NT	-11659
ales	-11660
awat	-11661
list	-11662
▁Mat	-11663
▁lik	-11664
▁owe	-11665
▁tor	-11666
ework	-11667
heres	-11668
inked	-11669
otion	-11670
▁Exec	-11671
▁Self	-11672
▁Uber	-11673
▁boyc	-11674
▁busy	-11675
▁cert	-11676
▁hall	-11677
▁plut	-11678
artial	-11679
handed	-11680
reated	-11681
ubborn	-11682
▁2017,	-11683
▁Impro	-11684
▁Innov	-11685
▁Osama	-11686
▁Young	-11687
▁cance	-11688
▁centr	-11689
▁fires	-11690
▁sever	-11691
▁shall	-11692
balance	-11693
▁Anyone	-11694
▁Madrid	-11695
▁Mechan	-11696
▁afraid	-11697
▁anchor	-11698
▁endang	-11699
▁reperc	-11700
equality	-11701
oliberal	-11702
▁bonuses	-11703
▁demagog	-11704
▁faction	-11705
▁proflig	-11706
▁quietly	-11707
▁readers	-11708
▁shouldn	-11709
▁varying	-11710
▁Managing	-11711
▁commerce	-11712
▁navigate	-11713
▁obsolete	-11714
▁perverse	-11715
▁proceeds	-11716
▁Euroskept	-11717
▁balancing	-11718
▁detention	-11719
▁eradicate	-11720
▁identical	-11721
▁immigrant	-11722
▁impending	-11723
▁leveraged	-11724
▁pessimism	-11725
▁radiation	-11726
▁reversing	-11727
▁compatible	-11728
▁dependency	-11729
▁manipulate	-11730
▁positioned	-11731
▁quantities	-11732
▁disillusion	-11733
▁Independence	-11734
▁headquarters	-11735
▁occasionally	-11736
QE	-11737
gue	-11738
▁EM	-11739
▁Ho	-11740
▁Ji	-11741
....	-11742
What	-11743
aven	-11744
host	-11745
▁Hum	-11746
▁Low	-11747
▁Nap	-11748
athan	-11749
gical	-11750
spons	-11751
▁$500	-11752
▁CEOs	-11753
▁Mult	-11754
▁Resp	-11755
▁Tric	-11756
▁dias	-11757
▁drew	-11758
▁glim	-11759
▁harb	-11760
50,000	-11761
rawing	-11762
unting	-11763
▁Large	-11764
▁Sadly	-11765
▁Turks	-11766
▁chart	-11767
▁farms	-11768
▁globe	-11769
▁pneum	-11770
▁unden	-11771
▁Around	-11772
▁Milton	-11773
▁burned	-11774
▁crunch	-11775
▁embark	-11776
▁harass	-11777
▁merits	-11778
▁wouldn	-11779
berspace	-11780
majority	-11781
ortunate	-11782
riptions	-11783
▁Service	-11784
▁cushion	-11785
▁guiding	-11786
▁impasse	-11787
▁refuses	-11788
iological	-11789
▁Canadian	-11790
▁Criminal	-11791
▁defenses	-11792
▁employer	-11793
▁executed	-11794
▁incurred	-11795
▁promotes	-11796
▁resemble	-11797
▁standoff	-11798
▁stopping	-11799
▁stubborn	-11800
▁studying	-11801
▁stunning	-11802
▁Kissinger	-11803
▁ballistic	-11804
▁competent	-11805
▁criticize	-11806
▁languages	-11807
▁pipelines	-11808
▁recipient	-11809
▁convention	-11810
▁discussing	-11811
▁explaining	-11812
▁reconsider	-11813
▁structured	-11814
▁persecution	-11815
▁prohibition	-11816
▁specialized	-11817
▁transferred	-11818
▁Unemployment	-11819
▁decentralized	-11820
▁repercussions	-11821
▁understandably	-11822
ui	-11823
MEs	-11824
ais	-11825
inf	-11826
zai	-11827
▁Ki	-11828
▁nu	-11829
acle	-11830
arth	-11831
chen	-11832
inis	-11833
iped	-11834
lead	-11835
mail	-11836
ndra	-11837
rows	-11838
viol	-11839
▁$20	-11840
▁$3.	-11841
▁Ale	-11842
▁Jos	-11843
▁RMB	-11844
▁SAN	-11845
▁Teh	-11846
▁Var	-11847
▁Zed	-11848
▁cod	-11849
▁tie	-11850
aires	-11851
apped	-11852
eters	-11853
ierra	-11854
ourge	-11855
perty	-11856
tered	-11857
▁$200	-11858
▁Carn	-11859
▁Drug	-11860
▁Life	-11861
▁Shah	-11862
▁cite	-11863
▁diam	-11864
▁page	-11865
▁tank	-11866
▁tant	-11867
chenko	-11868
inence	-11869
▁2016.	-11870
▁Hence	-11871
▁title	-11872
▁comply	-11873
▁hungry	-11874
▁silver	-11875
▁worthy	-11876
ractable	-11877
utionary	-11878
▁Failure	-11879
▁Overall	-11880
▁Poverty	-11881
▁aligned	-11882
▁approve	-11883
▁arrival	-11884
▁barrier	-11885
▁bridges	-11886
▁clashes	-11887
▁decides	-11888
▁earning	-11889
▁exclude	-11890
▁handled	-11891
▁illustr	-11892
▁organic	-11893
▁plunged	-11894
▁Eurozone	-11895
▁agreeing	-11896
▁allocate	-11897
▁backdrop	-11898
▁sympathy	-11899
▁Certainly	-11900
▁apparatus	-11901
▁blueprint	-11902
▁confusion	-11903
▁disorders	-11904
▁enshrined	-11905
▁locations	-11906
▁postponed	-11907
▁realizing	-11908
▁rebellion	-11909
▁resistant	-11910
▁satisfied	-11911
established	-11912
▁complaints	-11913
▁insurgents	-11914
▁reassuring	-11915
▁forecasting	-11916
▁inspiration	-11917
▁Historically	-11918
▁displacement	-11919
▁irreversible	-11920
di	-11921
TIP	-11922
awi	-11923
mir	-11924
sol	-11925
”),	-11926
▁du	-11927
edge	-11928
gone	-11929
heid	-11930
lege	-11931
▁1.2	-11932
▁13%	-11933
▁45%	-11934
▁Bes	-11935
▁COP	-11936
▁Fac	-11937
▁Lux	-11938
▁MIL	-11939
▁Ram	-11940
▁pin	-11941
acies	-11942
books	-11943
intao	-11944
oting	-11945
▁Camp	-11946
▁Conc	-11947
▁Maur	-11948
▁Murd	-11949
▁Rest	-11950
▁Trad	-11951
▁lest	-11952
▁ling	-11953
▁ruth	-11954
▁spin	-11955
▁swap	-11956
▁unsu	-11957
anches	-11958
azeera	-11959
isible	-11960
issile	-11961
orking	-11962
umping	-11963
utting	-11964
▁1992,	-11965
▁2020,	-11966
▁About	-11967
▁Domin	-11968
▁Dream	-11969
▁Fifth	-11970
▁Poles	-11971
▁brill	-11972
▁drain	-11973
▁drops	-11974
▁inner	-11975
▁penet	-11976
▁traum	-11977
▁verge	-11978
issance	-11979
oshenko	-11980
uctions	-11981
▁Jintao	-11982
▁Rising	-11983
▁Sierra	-11984
▁dubbed	-11985
▁enjoys	-11986
▁nearby	-11987
▁oldest	-11988
▁overhe	-11989
▁picked	-11990
▁render	-11991
children	-11992
▁Digital	-11993
▁Protest	-11994
▁adapted	-11995
▁curtail	-11996
▁embassy	-11997
▁explore	-11998
▁herself	-11999
▁nurture	-12000
▁outsize	-12001
▁passive	-12002
▁signing	-12003
▁Cultural	-12004
▁confused	-12005
▁markedly	-12006
▁messages	-12007
▁prevails	-12008
▁protocol	-12009
▁sacrific	-12010
▁sciences	-12011
▁spurring	-12012
▁succeeds	-12013
▁illnesses	-12014
▁paralyzed	-12015
▁pluralism	-12016
▁privately	-12017
▁surpassed	-12018
▁trillions	-12019
▁varieties	-12020
▁categories	-12021
▁conspiracy	-12022
▁credential	-12023
▁geographic	-12024
▁irrigation	-12025
▁manageable	-12026
▁oppression	-12027
▁prohibited	-12028
▁appreciated	-12029
▁conflicting	-12030
▁outsourcing	-12031
▁unavoidable	-12032
▁highlighting	-12033
▁satisfaction	-12034
▁transitional	-12035
▁exceptionally	-12036
▁Representative	-12037
▁extraordinarily	-12038
▁fundamentalists	-12039
AT	-12040
No	-12041
abe	-12042
dep	-12043
gar	-12044
umi	-12045
vio	-12046
▁65	-12047
▁ug	-12048
UNIC	-12049
imil	-12050
okes	-12051
upid	-12052
▁Kac	-12053
▁Kat	-12054
▁Len	-12055
▁lov	-12056
ariff	-12057
overy	-12058
ovsky	-12059
rates	-12060
▁1994	-12061
▁Deut	-12062
▁bell	-12063
▁bird	-12064
▁boon	-12065
▁butt	-12066
▁stro	-12067
orrect	-12068
rapped	-12069
▁1998,	-12070
▁havoc	-12071
rafting	-12072
▁batter	-12073
▁broker	-12074
▁lasted	-12075
▁proves	-12076
▁traits	-12077
▁upside	-12078
icrobial	-12079
▁Critics	-12080
▁William	-12081
▁counted	-12082
▁courses	-12083
▁crossed	-12084
▁debated	-12085
▁descend	-12086
▁dictate	-12087
▁insists	-12088
▁intends	-12089
▁profile	-12090
▁unhappy	-12091
sponsored	-12092
▁finished	-12093
▁flourish	-12094
▁imprison	-12095
▁moreover	-12096
▁precious	-12097
▁reformed	-12098
▁visiting	-12099
▁Argentine	-12100
▁Framework	-12101
▁headwinds	-12102
▁measuring	-12103
▁moderates	-12104
▁particles	-12105
▁privilege	-12106
▁subjected	-12107
▁watershed	-12108
▁worldview	-12109
▁Liberation	-12110
▁achievable	-12111
▁depositors	-12112
▁intervened	-12113
▁moderation	-12114
▁multiplier	-12115
▁prediction	-12116
▁radicalism	-12117
▁genetically	-12118
▁inhabitants	-12119
▁intervening	-12120
▁proceedings	-12121
▁unfortunate	-12122
▁demonstrators	-12123
BM	-12124
FP	-12125
POR	-12126
hon	-12127
san	-12128
▁SP	-12129
Year	-12130
acit	-12131
chev	-12132
held	-12133
hend	-12134
inea	-12135
mert	-12136
otal	-12137
pric	-12138
risy	-12139
▁Ent	-12140
▁KGB	-12141
▁Rad	-12142
▁fee	-12143
heads	-12144
orbyn	-12145
▁Dani	-12146
▁Kenn	-12147
▁ages	-12148
▁bind	-12149
▁nurs	-12150
▁obsc	-12151
▁owes	-12152
▁skin	-12153
izarre	-12154
liners	-12155
wealth	-12156
appropr	-12157
changed	-12158
ifiable	-12159
itively	-12160
▁Agenda	-12161
▁Silvio	-12162
▁Wilson	-12163
▁coffee	-12164
▁convey	-12165
▁crowds	-12166
▁havens	-12167
▁humili	-12168
payments	-12169
▁Bahrain	-12170
▁Ottoman	-12171
▁Paradox	-12172
▁educate	-12173
▁invaded	-12174
▁outlays	-12175
▁sparked	-12176
▁surging	-12177
▁symbols	-12178
▁verdict	-12179
▁attended	-12180
▁capitals	-12181
▁centered	-12182
▁composed	-12183
▁defended	-12184
▁emission	-12185
▁employee	-12186
▁everyday	-12187
▁horrific	-12188
▁rendered	-12189
▁evidently	-12190
▁inflicted	-12191
▁judgments	-12192
▁lifestyle	-12193
▁modernity	-12194
▁notorious	-12195
▁rebalance	-12196
▁classified	-12197
▁delegation	-12198
▁domination	-12199
▁questioned	-12200
▁regulating	-12201
▁calculation	-12202
▁exploration	-12203
▁intractable	-12204
▁procurement	-12205
▁disadvantage	-12206
▁inconsistent	-12207
▁entertainment	-12208
▁administrations	-12209
”?	-12210
dem	-12211
map	-12212
oup	-12213
▁90	-12214
▁GM	-12215
▁Je	-12216
hips	-12217
laim	-12218
qual	-12219
rior	-12220
xual	-12221
▁30-	-12222
▁BJP	-12223
▁BOJ	-12224
▁Bad	-12225
▁Kyi	-12226
▁Pot	-12227
▁Rab	-12228
▁SWF	-12229
▁dat	-12230
▁luc	-12231
▁ves	-12232
benef	-12233
group	-12234
merce	-12235
month	-12236
ulous	-12237
▁0.5%	-12238
▁Mitt	-12239
▁Need	-12240
▁chol	-12241
▁dece	-12242
▁gamb	-12243
▁samp	-12244
▁warn	-12245
▁webs	-12246
Brazil	-12247
ercant	-12248
ighbor	-12249
public	-12250
rehend	-12251
riched	-12252
ulence	-12253
▁Boris	-12254
▁Leone	-12255
▁deple	-12256
▁disse	-12257
▁endow	-12258
▁freer	-12259
▁naive	-12260
▁pages	-12261
▁ruler	-12262
▁theor	-12263
irected	-12264
▁Bhutto	-12265
▁Corbyn	-12266
▁Khrush	-12267
▁Olmert	-12268
▁Rogoff	-12269
▁hugely	-12270
▁hybrid	-12271
▁insult	-12272
▁mature	-12273
▁meters	-12274
▁squand	-12275
▁subtle	-12276
▁uncomp	-12277
Semitism	-12278
iniscent	-12279
▁Armenia	-12280
▁College	-12281
▁Persian	-12282
▁bizarre	-12283
▁ensured	-12284
▁moments	-12285
▁plastic	-12286
▁reprodu	-12287
▁retired	-12288
▁volunte	-12289
▁Regional	-12290
▁contempt	-12291
▁depended	-12292
▁dividend	-12293
▁elevated	-12294
▁extremes	-12295
▁inclined	-12296
▁mountain	-12297
▁patience	-12298
▁provoked	-12299
▁rigorous	-12300
▁Economist	-12301
▁Executive	-12302
▁admission	-12303
▁directors	-12304
▁fulfilled	-12305
▁slaughter	-12306
▁submitted	-12307
▁unchanged	-12308
▁Khrushchev	-12309
▁correction	-12310
▁exploiting	-12311
▁extraction	-12312
▁jeopardize	-12313
▁precarious	-12314
▁subsidized	-12315
▁supportive	-12316
▁tendencies	-12317
▁entitlement	-12318
▁questioning	-12319
▁realization	-12320
▁superiority	-12321
▁technically	-12322
▁deficiencies	-12323
▁exacerbating	-12324
▁incompetence	-12325
▁participated	-12326
▁civilizations	-12327
▁corresponding	-12328
▁distinguished	-12329
-6	-12330
GI	-12331
ta	-12332
▁£	-12333
aki	-12334
ali	-12335
aud	-12336
dog	-12337
ede	-12338
▁Fl	-12339
-198	-12340
abao	-12341
arde	-12342
fast	-12343
inqu	-12344
play	-12345
star	-12346
▁1.3	-12347
▁Beg	-12348
▁Rod	-12349
▁geo	-12350
▁hoc	-12351
▁orc	-12352
▁pit	-12353
▁rav	-12354
amous	-12355
anmen	-12356
annon	-12357
arrhe	-12358
dling	-12359
inery	-12360
lived	-12361
ouses	-12362
▁IPCC	-12363
▁Stat	-12364
▁Urug	-12365
▁Yush	-12366
▁belt	-12367
▁dose	-12368
▁fake	-12369
▁sway	-12370
ixture	-12371
▁Istan	-12372
▁Major	-12373
▁Stock	-12374
▁backs	-12375
▁embry	-12376
▁inval	-12377
▁sanct	-12378
▁steam	-12379
▁stuff	-12380
▁tacit	-12381
▁Darwin	-12382
▁Higher	-12383
▁Jiabao	-12384
▁Maduro	-12385
▁affirm	-12386
▁ancest	-12387
▁clause	-12388
▁dismal	-12389
▁motion	-12390
▁papers	-12391
▁stores	-12392
▁taxing	-12393
▁unsett	-12394
▁Jazeera	-12395
▁advised	-12396
▁depress	-12397
▁endemic	-12398
▁fantasy	-12399
▁illicit	-12400
▁monarch	-12401
▁overest	-12402
▁realism	-12403
▁refrain	-12404
▁useless	-12405
▁Building	-12406
▁Emmanuel	-12407
▁Istanbul	-12408
▁abstract	-12409
▁crossing	-12410
▁enjoying	-12411
▁envision	-12412
▁exported	-12413
▁gridlock	-12414
▁innovate	-12415
▁landmark	-12416
▁narrowly	-12417
▁sequence	-12418
▁treasury	-12419
revolution	-12420
▁Communism	-12421
▁accidents	-12422
▁amendment	-12423
▁decreased	-12424
▁fragility	-12425
▁newcomers	-12426
▁persuaded	-12427
▁populated	-12428
▁proximity	-12429
▁unfolding	-12430
▁absolutely	-12431
▁critically	-12432
▁enrollment	-12433
▁grassroots	-12434
▁liberation	-12435
▁literature	-12436
▁majorities	-12437
▁organizing	-12438
▁predicting	-12439
▁privileges	-12440
▁registered	-12441
▁adversaries	-12442
▁empowerment	-12443
▁resignation	-12444
▁demonstration	-12445
▁multicultural	-12446
At	-12447
GH	-12448
ids	-12449
▁CH	-12450
aque	-12451
greg	-12452
igue	-12453
lose	-12454
teen	-12455
▁16%	-12456
▁Cap	-12457
▁Rob	-12458
▁hem	-12459
▁sta	-12460
UNICH	-12461
arted	-12462
heric	-12463
liest	-12464
reach	-12465
stein	-12466
▁HONG	-12467
▁KONG	-12468
▁Nare	-12469
▁TTIP	-12470
▁auto	-12471
▁hint	-12472
▁mole	-12473
▁omin	-12474
▁rall	-12475
▁ruin	-12476
▁stip	-12477
▁stir	-12478
▁tape	-12479
enment	-12480
▁1994,	-12481
▁2000’	-12482
▁exile	-12483
▁inexp	-12484
▁loses	-12485
▁spell	-12486
America	-12487
sighted	-12488
▁Diplom	-12489
▁Luxemb	-12490
▁MUNICH	-12491
▁Tehran	-12492
▁Warren	-12493
▁Warsaw	-12494
▁buffer	-12495
▁device	-12496
▁pulled	-12497
▁suprem	-12498
▁trauma	-12499
▁Consequ	-12500
▁Looking	-12501
▁Uruguay	-12502
▁Volcker	-12503
▁beneath	-12504
▁crowded	-12505
▁dispers	-12506
▁imposes	-12507
▁presupp	-12508
▁reactor	-12509
▁talents	-12510
▁Narendra	-12511
▁maturity	-12512
▁murdered	-12513
▁protects	-12514
▁reassert	-12515
▁tropical	-12516
▁Mechanism	-12517
▁Relations	-12518
▁Tiananmen	-12519
▁commander	-12520
▁diffusion	-12521
▁dissatisf	-12522
▁installed	-12523
▁outbreaks	-12524
▁repayment	-12525
▁Eventually	-12526
▁disorderly	-12527
▁expressing	-12528
▁financiers	-12529
▁journalism	-12530
▁prevalence	-12531
▁reinforces	-12532
▁compromised	-12533
▁credentials	-12534
▁geopolitics	-12535
▁pessimistic	-12536
▁prosecution	-12537
▁signatories	-12538
▁substantive	-12539
▁supervisory	-12540
▁susceptible	-12541
▁underscores	-12542
▁artificially	-12543
▁consultation	-12544
▁discouraging	-12545
▁systemically	-12546
▁contradiction	-12547
▁predominantly	-12548
▁conditionality	-12549
▁investigations	-12550
ero	-12551
ker	-12552
pop	-12553
from	-12554
iral	-12555
▁EMU	-12556
▁Gra	-12557
▁Hay	-12558
▁Suu	-12559
▁bru	-12560
▁fur	-12561
▁gay	-12562
peace	-12563
track	-12564
umber	-12565
wards	-12566
▁1996	-12567
▁Disc	-12568
▁Emir	-12569
▁Hans	-12570
▁Land	-12571
▁fans	-12572
▁gift	-12573
▁owed	-12574
▁skew	-12575
▁unve	-12576
arctic	-12577
fueled	-12578
ulsion	-12579
▁datab	-12580
▁disen	-12581
▁meets	-12582
▁realm	-12583
▁riots	-12584
▁veter	-12585
▁walls	-12586
angered	-12587
arching	-12588
inating	-12589
▁Guinea	-12590
▁Rohing	-12591
▁athlet	-12592
▁caliph	-12593
▁hosted	-12594
▁plunge	-12595
▁repaid	-12596
▁underw	-12597
dictions	-12598
▁Kashmir	-12599
▁Trichet	-12600
▁augment	-12601
▁cleaner	-12602
▁coexist	-12603
▁fiction	-12604
▁lagging	-12605
▁picking	-12606
▁plagued	-12607
▁preempt	-12608
▁retains	-12609
▁turnout	-12610
▁weakens	-12611
▁engineer	-12612
▁misunder	-12613
▁monarchy	-12614
▁retrench	-12615
▁subordin	-12616
imicrobial	-12617
▁Catalonia	-12618
▁Confucian	-12619
▁Northeast	-12620
▁alleviate	-12621
▁amounting	-12622
▁avoidance	-12623
▁frequency	-12624
▁jihadists	-12625
▁machinery	-12626
▁proactive	-12627
▁reformist	-12628
▁screening	-12629
conditional	-12630
▁Inequality	-12631
▁Resolution	-12632
▁compassion	-12633
▁conducting	-12634
▁disposable	-12635
▁objections	-12636
▁constructed	-12637
▁ingredients	-12638
▁preoccupied	-12639
▁reminiscent	-12640
▁suppression	-12641
▁undervalued	-12642
▁geographical	-12643
▁persistently	-12644
▁ratification	-12645
▁accommodation	-12646
▁independently	-12647
▁jurisdictions	-12648
▁socioeconomic	-12649
▁uncomfortable	-12650
▁transformative	-12651
St	-12652
nn	-12653
uy	-12654
ouf	-12655
▁ze	-12656
etus	-12657
game	-12658
habi	-12659
omer	-12660
▁2.5	-12661
▁Ash	-12662
▁Cru	-12663
▁Lim	-12664
▁Men	-12665
▁Xin	-12666
▁cam	-12667
▁pes	-12668
▁upd	-12669
anged	-12670
inate	-12671
izumi	-12672
jiang	-12673
overe	-12674
äuble	-12675
▁1993	-12676
▁FARC	-12677
▁Hass	-12678
▁Tanz	-12679
▁junt	-12680
▁mine	-12681
▁soul	-12682
▁wart	-12683
decade	-12684
eville	-12685
idding	-12686
inable	-12687
killed	-12688
ledged	-12689
modern	-12690
ulates	-12691
▁Harry	-12692
▁boats	-12693
▁energ	-12694
▁lucky	-12695
▁mayor	-12696
▁owner	-12697
▁posts	-12698
▁quota	-12699
▁stamp	-12700
instein	-12701
urances	-12702
▁Oxford	-12703
▁autumn	-12704
▁portra	-12705
▁surviv	-12706
▁tactic	-12707
▁talked	-12708
▁tissue	-12709
ependent	-12710
military	-12711
▁Challen	-12712
▁Cypriot	-12713
▁Koizumi	-12714
▁Liberia	-12715
▁Support	-12716
▁footing	-12717
▁impeded	-12718
▁longest	-12719
▁proving	-12720
▁shocked	-12721
▁staying	-12722
▁supreme	-12723
▁utility	-12724
democracy	-12725
president	-12726
producing	-12727
▁Citizens	-12728
▁Standard	-12729
▁bacteria	-12730
▁homeland	-12731
▁hypothes	-12732
▁retained	-12733
▁servants	-12734
▁Achieving	-12735
▁Antarctic	-12736
▁chemicals	-12737
▁constrain	-12738
▁governors	-12739
▁invention	-12740
▁obsession	-12741
▁penalties	-12742
▁qualities	-12743
▁resembles	-12744
▁withdrawn	-12745
engineering	-12746
▁analytical	-12747
▁eighteenth	-12748
▁helicopter	-12749
▁proponents	-12750
▁separatist	-12751
▁turbulence	-12752
▁battlefield	-12753
▁diversified	-12754
▁macroeconom	-12755
▁persistence	-12756
▁Intelligence	-12757
▁acceleration	-12758
▁disappointed	-12759
▁enthusiastic	-12760
▁incompatible	-12761
▁tuberculosis	-12762
▁Conservatives	-12763
▁mismanagement	-12764
▁interdependent	-12765
15	-12766
MT	-12767
ati	-12768
▁Ap	-12769
Chin	-12770
apid	-12771
even	-12772
ihil	-12773
inge	-12774
ldom	-12775
lude	-12776
▁17%	-12777
▁22%	-12778
▁JPM	-12779
▁PLO	-12780
▁cig	-12781
▁mig	-12782
▁sed	-12783
asser	-12784
grown	-12785
ighed	-12786
irmed	-12787
ogene	-12788
quiry	-12789
there	-12790
▁1.5%	-12791
▁Vict	-12792
▁mend	-12793
▁oust	-12794
▁twin	-12795
▁2002.	-12796
▁Seoul	-12797
▁bread	-12798
▁repud	-12799
▁scant	-12800
▁shore	-12801
▁siege	-12802
▁sorts	-12803
Chinese	-12804
▁Little	-12805
▁Recogn	-12806
▁assign	-12807
▁breath	-12808
▁futile	-12809
▁glance	-12810
▁inclus	-12811
▁mantra	-12812
▁neglig	-12813
▁plague	-12814
▁trades	-12815
aissance	-12816
▁Malaria	-12817
▁awarded	-12818
▁clinics	-12819
▁divorce	-12820
▁fertile	-12821
▁inertia	-12822
▁locally	-12823
▁mixture	-12824
▁outward	-12825
▁precond	-12826
▁rejects	-12827
terrorism	-12828
▁Mohammed	-12829
▁Orthodox	-12830
▁Progress	-12831
▁Schäuble	-12832
▁airports	-12833
▁asserted	-12834
▁brothers	-12835
▁deprived	-12836
▁divisive	-12837
▁mandates	-12838
▁outdated	-12839
▁shopping	-12840
▁taxpayer	-12841
▁vigilant	-12842
▁vigorous	-12843
▁2008-2009	-12844
▁Governing	-12845
▁colleague	-12846
▁hegemonic	-12847
▁oligarchs	-12848
▁synthetic	-12849
▁accordance	-12850
▁automobile	-12851
▁celebrated	-12852
▁continuity	-12853
▁cyberspace	-12854
▁describing	-12855
▁disability	-12856
▁divergence	-12857
▁imprisoned	-12858
▁professors	-12859
▁prosecutor	-12860
▁successors	-12861
▁integrating	-12862
▁modernizing	-12863
▁restrictive	-12864
▁retaliation	-12865
▁strengthens	-12866
▁jeopardizing	-12867
▁perspectives	-12868
▁Transatlantic	-12869
▁acknowledging	-12870
▁neighborhoods	-12871
▁disappointment	-12872
Ab	-12873
bel	-12874
mes	-12875
mit	-12876
▁Hy	-12877
▁IA	-12878
icot	-12879
uana	-12880
▁FSB	-12881
▁Lou	-12882
▁Nav	-12883
▁Slo	-12884
▁Wah	-12885
▁coc	-12886
▁lax	-12887
▁ton	-12888
craft	-12889
ivism	-12890
owitz	-12891
ucing	-12892
▁2050	-12893
▁Brex	-12894
▁Dise	-12895
▁Gore	-12896
▁Pres	-12897
▁bets	-12898
▁dies	-12899
▁hurd	-12900
▁myst	-12901
▁poet	-12902
▁sons	-12903
▁wear	-12904
arming	-12905
asures	-12906
▁Congo	-12907
▁Recon	-12908
▁agent	-12909
▁alert	-12910
▁cling	-12911
▁lingu	-12912
▁opted	-12913
▁paths	-12914
▁peers	-12915
▁scram	-12916
▁widen	-12917
Russian	-12918
akening	-12919
million	-12920
▁Atomic	-12921
▁Bannon	-12922
▁Sharif	-12923
▁Zedong	-12924
▁abound	-12925
▁banker	-12926
▁column	-12927
▁drones	-12928
▁elabor	-12929
▁forged	-12930
▁galvan	-12931
▁gamble	-12932
▁heroic	-12933
▁intact	-12934
▁organs	-12935
▁puzzle	-12936
▁sacred	-12937
▁diarrhe	-12938
▁fraught	-12939
▁hitting	-12940
▁impacts	-12941
▁militia	-12942
▁morning	-12943
▁obscure	-12944
▁orchest	-12945
▁priorit	-12946
▁squeeze	-12947
▁tyranny	-12948
▁volumes	-12949
▁wartime	-12950
▁Americas	-12951
▁Rohingya	-12952
▁blessing	-12953
▁catalyst	-12954
▁delicate	-12955
▁duration	-12956
▁embodied	-12957
▁exciting	-12958
▁hardline	-12959
▁illiquid	-12960
▁improves	-12961
▁mosquito	-12962
▁peculiar	-12963
▁settings	-12964
▁takeover	-12965
▁traveled	-12966
▁upheaval	-12967
▁Alexander	-12968
▁Colombian	-12969
▁collapses	-12970
▁disrupted	-12971
▁procedure	-12972
▁relatives	-12973
▁religions	-12974
▁Individual	-12975
▁comprehend	-12976
▁mobilizing	-12977
▁practition	-12978
▁pronounced	-12979
▁recovering	-12980
particularly	-12981
▁advancement	-12982
▁discoveries	-12983
▁manipulated	-12984
▁sensitivity	-12985
▁specialists	-12986
▁transmitted	-12987
▁unregulated	-12988
▁imprisonment	-12989
▁overcapacity	-12990
▁precautionary	-12991
▁distributional	-12992
EV	-12993
-15	-12994
gor	-12995
pse	-12996
-20,	-12997
This	-12998
dest	-12999
ukun	-13000
zhen	-13001
▁(19	-13002
▁Adv	-13003
▁BoE	-13004
▁Dif	-13005
▁Hur	-13006
▁Moz	-13007
▁Taj	-13008
▁ans	-13009
There	-13010
chant	-13011
icter	-13012
▁Jeff	-13013
▁NCDs	-13014
▁bull	-13015
▁ende	-13016
▁evac	-13017
▁guns	-13018
▁inad	-13019
▁ugly	-13020
acking	-13021
around	-13022
arther	-13023
hengen	-13024
ittees	-13025
ourced	-13026
▁1995,	-13027
▁2003.	-13028
▁Which	-13029
▁Years	-13030
▁fines	-13031
▁grain	-13032
▁heter	-13033
▁horse	-13034
▁junta	-13035
▁recal	-13036
▁sleep	-13037
hemical	-13038
▁10,000	-13039
▁framed	-13040
▁golden	-13041
▁heated	-13042
▁pestic	-13043
▁pollut	-13044
▁praise	-13045
▁strife	-13046
▁surged	-13047
▁theirs	-13048
▁Morales	-13049
▁analyze	-13050
▁anymore	-13051
▁counsel	-13052
▁debacle	-13053
▁matched	-13054
▁skyrock	-13055
▁Democrat	-13056
▁Schengen	-13057
▁answered	-13058
▁commemor	-13059
▁embarked	-13060
▁incoming	-13061
▁stricter	-13062
confidence	-13063
▁Taiwanese	-13064
▁basically	-13065
▁brutality	-13066
▁civilized	-13067
▁fisheries	-13068
▁Management	-13069
▁Yushchenko	-13070
▁depreciate	-13071
▁depressing	-13072
▁engineered	-13073
▁healthcare	-13074
▁sacrifices	-13075
▁wealthiest	-13076
▁imperatives	-13077
▁observation	-13078
▁withdrawing	-13079
globalization	-13080
▁governmental	-13081
▁questionable	-13082
▁discretionary	-13083
▁fundamentalist	-13084
wa	-13085
ald	-13086
bes	-13087
hud	-13088
ota	-13089
▁29	-13090
▁Dr	-13091
▁Il	-13092
0027	-13093
EOUL	-13094
Shia	-13095
bott	-13096
hour	-13097
isen	-13098
itim	-13099
kaku	-13100
paid	-13101
yans	-13102
▁190	-13103
▁2%.	-13104
▁85%	-13105
▁CIT	-13106
▁Dom	-13107
▁GCC	-13108
▁LDP	-13109
▁MIT	-13110
▁Min	-13111
▁upt	-13112
appro	-13113
eless	-13114
ivest	-13115
lings	-13116
oston	-13117
oving	-13118
raged	-13119
rying	-13120
▁Area	-13121
▁Belt	-13122
▁Salv	-13123
▁beef	-13124
▁chau	-13125
▁eman	-13126
▁swit	-13127
▁user	-13128
ainted	-13129
collar	-13130
iteers	-13131
ompass	-13132
target	-13133
▁1980,	-13134
▁2050.	-13135
▁Croat	-13136
▁SEOUL	-13137
▁Uribe	-13138
▁arena	-13139
▁curve	-13140
▁dirty	-13141
▁magic	-13142
▁reloc	-13143
▁slows	-13144
▁unamb	-13145
▁upris	-13146
fledged	-13147
itating	-13148
▁Boston	-13149
▁Compet	-13150
▁Deputy	-13151
▁Napole	-13152
▁apolog	-13153
▁endure	-13154
▁flying	-13155
▁fruits	-13156
▁lawyer	-13157
▁mirror	-13158
▁opaque	-13159
▁pieces	-13160
▁submit	-13161
▁troika	-13162
specific	-13163
▁Studies	-13164
▁Tibetan	-13165
▁defines	-13166
▁fearful	-13167
▁horrors	-13168
▁publish	-13169
▁shelter	-13170
▁undergo	-13171
▁upgrade	-13172
▁virtues	-13173
▁visions	-13174
Palestine	-13175
President	-13176
establish	-13177
reasuries	-13178
▁Tanzania	-13179
▁analyses	-13180
▁deepened	-13181
▁diaspora	-13182
▁dividing	-13183
▁floating	-13184
▁heritage	-13185
▁inflated	-13186
▁pandemic	-13187
▁sizeable	-13188
▁tourists	-13189
fulfilling	-13190
▁behaviors	-13191
▁convicted	-13192
▁diversify	-13193
▁logistics	-13194
▁occasions	-13195
▁peninsula	-13196
▁portrayed	-13197
▁readiness	-13198
▁selective	-13199
▁unskilled	-13200
▁uprisings	-13201
▁viability	-13202
▁Affordable	-13203
▁Technology	-13204
▁commentary	-13205
▁disclosure	-13206
▁fertilizer	-13207
▁imposition	-13208
▁indicating	-13209
▁innovators	-13210
▁laboratory	-13211
▁possession	-13212
▁properties	-13213
▁suggestion	-13214
▁worthwhile	-13215
▁illustrates	-13216
▁refinancing	-13217
▁respondents	-13218
▁constituency	-13219
▁continuation	-13220
▁experimental	-13221
▁consequential	-13222
PE	-13223
cr	-13224
azi	-13225
bai	-13226
can	-13227
hot	-13228
ofi	-13229
rot	-13230
rup	-13231
urk	-13232
▁IR	-13233
▁Ib	-13234
▁LA	-13235
pins	-13236
poor	-13237
▁28%	-13238
▁Mun	-13239
▁Pow	-13240
▁Way	-13241
▁awa	-13242
▁bom	-13243
abled	-13244
arded	-13245
auses	-13246
aware	-13247
iller	-13248
rooms	-13249
ukuni	-13250
▁Azer	-13251
▁Plen	-13252
▁Rums	-13253
▁Test	-13254
▁culp	-13255
▁disd	-13256
▁lags	-13257
▁pend	-13258
▁rape	-13259
▁seed	-13260
ouring	-13261
paying	-13262
▁Chern	-13263
▁Dubai	-13264
▁Glass	-13265
▁franc	-13266
▁recyc	-13267
▁spots	-13268
benefit	-13269
defined	-13270
▁Damasc	-13271
▁Shiite	-13272
▁Sovere	-13273
▁Strong	-13274
▁Taylor	-13275
▁Things	-13276
▁boosts	-13277
▁client	-13278
▁infant	-13279
▁listed	-13280
▁milest	-13281
▁myself	-13282
▁seldom	-13283
▁sister	-13284
▁stupid	-13285
▁varied	-13286
▁wisely	-13287
▁worlds	-13288
ercantil	-13289
▁200,000	-13290
▁Britons	-13291
▁appease	-13292
▁arising	-13293
▁expropr	-13294
▁gesture	-13295
▁jointly	-13296
▁millenn	-13297
▁pulling	-13298
▁secrecy	-13299
▁segment	-13300
▁simpler	-13301
▁toppled	-13302
▁yielded	-13303
ilization	-13304
▁Facility	-13305
▁Mohammad	-13306
▁Refugees	-13307
▁Rumsfeld	-13308
▁Services	-13309
▁Slovakia	-13310
▁Yasukuni	-13311
▁deadline	-13312
▁develops	-13313
▁eligible	-13314
▁graduate	-13315
▁operated	-13316
▁rainfall	-13317
▁tailored	-13318
▁variable	-13319
▁Hollywood	-13320
▁Universal	-13321
▁capturing	-13322
▁encompass	-13323
▁listening	-13324
▁lucrative	-13325
▁nostalgia	-13326
▁possesses	-13327
▁resisting	-13328
▁circumvent	-13329
▁functional	-13330
▁groundwork	-13331
▁influences	-13332
▁multipolar	-13333
▁sovereigns	-13334
productivity	-13335
▁charismatic	-13336
▁marketplace	-13337
▁overwhelmed	-13338
▁prerequisite	-13339
▁reproductive	-13340
▁unconditional	-13341
MI	-13342
da	-13343
IFA	-13344
Sax	-13345
aka	-13346
ams	-13347
oko	-13348
thy	-13349
▁(2	-13350
▁Py	-13351
aund	-13352
ifty	-13353
ithm	-13354
lium	-13355
sche	-13356
take	-13357
uber	-13358
west	-13359
▁$60	-13360
▁-0.	-13361
▁Kor	-13362
▁bag	-13363
▁dra	-13364
▁tip	-13365
chner	-13366
ombie	-13367
onies	-13368
▁1945	-13369
▁Deep	-13370
▁IAEA	-13371
▁José	-13372
▁Work	-13373
▁buck	-13374
▁cher	-13375
▁dent	-13376
▁hect	-13377
▁kids	-13378
▁mask	-13379
▁pond	-13380
▁soci	-13381
anding	-13382
hammad	-13383
ijuana	-13384
placed	-13385
supply	-13386
▁2017.	-13387
▁Child	-13388
▁recru	-13389
▁reval	-13390
▁shake	-13391
▁versa	-13392
banking	-13393
icament	-13394
overing	-13395
politik	-13396
ulatory	-13397
umption	-13398
▁Bhutan	-13399
▁Carter	-13400
▁Karzai	-13401
▁Latvia	-13402
▁Powell	-13403
▁Target	-13404
▁bailed	-13405
▁bypass	-13406
▁covert	-13407
▁uneven	-13408
thinking	-13409
▁Lagarde	-13410
▁Murdoch	-13411
▁beating	-13412
▁blaming	-13413
▁convict	-13414
▁devised	-13415
▁drastic	-13416
▁emotion	-13417
▁hopeful	-13418
▁manages	-13419
▁mergers	-13420
▁primacy	-13421
▁risking	-13422
▁stretch	-13423
▁summits	-13424
▁tripled	-13425
▁unequiv	-13426
immigrant	-13427
stitution	-13428
▁Bulgaria	-13429
▁coercion	-13430
▁handling	-13431
▁likewise	-13432
▁magazine	-13433
▁populous	-13434
ranational	-13435
▁Francisco	-13436
▁apartheid	-13437
▁disparate	-13438
▁hypocrisy	-13439
▁northeast	-13440
▁pneumonia	-13441
▁reporters	-13442
▁sidelines	-13443
▁spiritual	-13444
▁supplying	-13445
▁tightened	-13446
▁workplace	-13447
▁Securities	-13448
▁authorized	-13449
▁developers	-13450
▁dissidents	-13451
▁endangered	-13452
▁maximizing	-13453
▁minimizing	-13454
▁monopolies	-13455
▁resurgence	-13456
▁simplistic	-13457
▁starvation	-13458
▁variations	-13459
▁coincidence	-13460
▁unanimously	-13461
▁administered	-13462
▁indebtedness	-13463
▁inefficiency	-13464
▁underpinning	-13465
▁disadvantaged	-13466
▁notwithstanding	-13467
▁technologically	-13468
AM	-13469
▁­	-13470
00,	-13471
New	-13472
lem	-13473
ona	-13474
ora	-13475
▁37	-13476
bing	-13477
gery	-13478
hent	-13479
ifts	-13480
obyl	-13481
olen	-13482
othe	-13483
plan	-13484
rier	-13485
▁10.	-13486
▁FBI	-13487
▁Sor	-13488
▁ber	-13489
▁nan	-13490
▁sab	-13491
eller	-13492
icate	-13493
luded	-13494
print	-13495
setts	-13496
▁Ehud	-13497
▁Niet	-13498
▁Star	-13499
▁corn	-13500
▁detr	-13501
▁hole	-13502
▁shop	-13503
▁song	-13504
▁subs	-13505
▁wire	-13506
▁wood	-13507
eating	-13508
fforts	-13509
inston	-13510
ousing	-13511
▁Costa	-13512
▁Early	-13513
▁MILAN	-13514
▁Think	-13515
▁arose	-13516
▁disgu	-13517
▁doses	-13518
▁ethos	-13519
▁knock	-13520
▁lofty	-13521
▁subdu	-13522
▁vivid	-13523
certain	-13524
habilit	-13525
onsense	-13526
profile	-13527
▁Nature	-13528
▁Thirty	-13529
▁agrees	-13530
▁armies	-13531
▁breach	-13532
▁delays	-13533
▁engulf	-13534
▁fusion	-13535
▁handed	-13536
▁incurs	-13537
▁reiter	-13538
▁unimag	-13539
▁valued	-13540
Pakistan	-13541
tradable	-13542
▁Barroso	-13543
▁Czechos	-13544
▁Drawing	-13545
▁Medical	-13546
▁Winston	-13547
▁chaotic	-13548
▁chooses	-13549
▁forging	-13550
▁instant	-13551
▁replied	-13552
▁rescued	-13553
▁shorter	-13554
▁stature	-13555
▁tipping	-13556
▁unambig	-13557
▁vessels	-13558
▁Austrian	-13559
▁advocacy	-13560
▁bombings	-13561
▁confirms	-13562
▁jihadist	-13563
▁reassure	-13564
▁solvency	-13565
▁textbook	-13566
antitative	-13567
▁Strategic	-13568
▁candidacy	-13569
▁classical	-13570
▁comparing	-13571
▁conceived	-13572
▁detriment	-13573
▁epidemics	-13574
▁excluding	-13575
▁invisible	-13576
▁occupying	-13577
▁polarized	-13578
▁signaling	-13579
▁transcend	-13580
lightenment	-13581
▁Brexiteers	-13582
▁assurances	-13583
▁asymmetric	-13584
▁patriotism	-13585
▁unbalanced	-13586
▁underscore	-13587
▁automobiles	-13588
▁contemplate	-13589
▁dismantling	-13590
▁investigate	-13591
▁mathematics	-13592
▁orientation	-13593
▁predicament	-13594
▁preventable	-13595
▁prosecutors	-13596
determination	-13597
▁Scandinavian	-13598
▁retrenchment	-13599
▁collaborative	-13600
rö	-13601
ado	-13602
usk	-13603
xon	-13604
▁38	-13605
▁Fe	-13606
achu	-13607
akis	-13608
asht	-13609
emia	-13610
iber	-13611
lick	-13612
post	-13613
▁18%	-13614
▁Ill	-13615
▁MPs	-13616
▁boy	-13617
▁din	-13618
▁gig	-13619
▁lin	-13620
▁rom	-13621
-2015	-13622
South	-13623
arest	-13624
isure	-13625
lical	-13626
maker	-13627
mount	-13628
onial	-13629
urate	-13630
urned	-13631
▁1973	-13632
▁Cond	-13633
▁Dist	-13634
▁Kofi	-13635
▁SMEs	-13636
▁Sure	-13637
▁blat	-13638
▁glac	-13639
▁impl	-13640
▁lean	-13641
▁teen	-13642
linked	-13643
losion	-13644
odshed	-13645
strong	-13646
▁Abdel	-13647
▁Later	-13648
▁clubs	-13649
▁decay	-13650
▁faire	-13651
▁looph	-13652
▁misal	-13653
▁pilot	-13654
▁ridic	-13655
▁stars	-13656
▁taxed	-13657
▁vowed	-13658
general	-13659
keepers	-13660
natural	-13661
oufakis	-13662
repared	-13663
serving	-13664
taining	-13665
▁Santos	-13666
▁atomic	-13667
▁eating	-13668
▁famine	-13669
▁helium	-13670
▁passes	-13671
▁prolif	-13672
▁rocket	-13673
▁staged	-13674
▁wholes	-13675
business	-13676
esterday	-13677
▁Control	-13678
▁Greater	-13679
▁Senkaku	-13680
▁cholera	-13681
▁fascism	-13682
▁fatigue	-13683
▁holiday	-13684
▁intrins	-13685
▁married	-13686
▁redress	-13687
▁repatri	-13688
▁revenge	-13689
▁teacher	-13690
achusetts	-13691
ividually	-13692
strategic	-13693
▁Muhammad	-13694
▁Salvador	-13695
▁branches	-13696
▁catalyze	-13697
▁combines	-13698
▁convened	-13699
▁enriched	-13700
▁exposing	-13701
▁premiums	-13702
▁punished	-13703
▁remedies	-13704
▁rewarded	-13705
▁tortured	-13706
ignificant	-13707
▁Wolfowitz	-13708
▁acquiring	-13709
▁asserting	-13710
▁audiences	-13711
▁computing	-13712
▁deploying	-13713
▁donations	-13714
▁interrupt	-13715
▁prevalent	-13716
▁purchased	-13717
▁rehabilit	-13718
▁stringent	-13719
▁untenable	-13720
▁upholding	-13721
▁wealthier	-13722
▁Luxembourg	-13723
▁capitalize	-13724
▁committees	-13725
▁determines	-13726
▁hardliners	-13727
▁stabilized	-13728
▁thoughtful	-13729
▁translated	-13730
▁underscored	-13731
▁inclusiveness	-13732
▁Czechoslovakia	-13733
▁radicalization	-13734
RT	-13735
del	-13736
pie	-13737
▁31	-13738
▁36	-13739
▁EF	-13740
▁ME	-13741
▁€3	-13742
arag	-13743
coin	-13744
eder	-13745
iche	-13746
ript	-13747
tion	-13748
▁14%	-13749
▁Yuk	-13750
▁lav	-13751
apego	-13752
asset	-13753
ilton	-13754
ndrom	-13755
rahim	-13756
steps	-13757
▁0.7%	-13758
▁Clos	-13759
▁FIFA	-13760
▁Hard	-13761
▁Karl	-13762
▁USSR	-13763
▁axis	-13764
▁thro	-13765
▁zeal	-13766
akable	-13767
ducive	-13768
enders	-13769
ontane	-13770
undrum	-13771
▁Exxon	-13772
▁Larry	-13773
▁Price	-13774
▁cheer	-13775
▁downs	-13776
▁films	-13777
▁stone	-13778
▁strip	-13779
▁undes	-13780
athetic	-13781
ittedly	-13782
olation	-13783
rection	-13784
versely	-13785
working	-13786
▁Accord	-13787
▁Hassan	-13788
▁Nobody	-13789
▁adoles	-13790
▁aiming	-13791
▁allied	-13792
▁domain	-13793
▁finger	-13794
▁motive	-13795
▁racism	-13796
▁shorts	-13797
▁spared	-13798
▁Getting	-13799
▁Nicarag	-13800
▁dragged	-13801
▁heating	-13802
▁indices	-13803
▁inhibit	-13804
▁license	-13805
▁persons	-13806
▁reminds	-13807
▁reviews	-13808
▁scapego	-13809
▁seeming	-13810
▁staunch	-13811
▁widened	-13812
▁writers	-13813
valuation	-13814
▁Consumer	-13815
▁Damascus	-13816
▁Medicaid	-13817
▁Millions	-13818
▁aversion	-13819
▁compound	-13820
▁converge	-13821
▁diplomat	-13822
▁fortunes	-13823
▁friction	-13824
▁inferior	-13825
▁paternal	-13826
▁rankings	-13827
▁resolute	-13828
▁shutdown	-13829
▁supplied	-13830
▁withdrew	-13831
▁worsened	-13832
▁Catholics	-13833
▁Currently	-13834
▁assembled	-13835
▁bloodshed	-13836
▁designing	-13837
▁enforcing	-13838
▁intensive	-13839
▁partition	-13840
▁preceding	-13841
▁subsidize	-13842
▁survivors	-13843
▁devastated	-13844
▁recoveries	-13845
▁standpoint	-13846
▁thoroughly	-13847
▁vocational	-13848
▁Information	-13849
▁Recognizing	-13850
▁meaningless	-13851
▁ministerial	-13852
▁deteriorated	-13853
▁mobilization	-13854
▁Massachusetts	-13855
▁supranational	-13856
PI	-13857
uj	-13858
vi	-13859
és	-13860
ña	-13861
-2.	-13862
iah	-13863
igl	-13864
▁OS	-13865
azir	-13866
bond	-13867
furt	-13868
rick	-13869
▁Amb	-13870
▁Ger	-13871
▁NTC	-13872
▁PiS	-13873
▁Sar	-13874
▁Tah	-13875
▁Vot	-13876
▁von	-13877
Great	-13878
Saxon	-13879
alism	-13880
elior	-13881
odork	-13882
oment	-13883
opian	-13884
pling	-13885
▁$300	-13886
▁Data	-13887
▁Dmit	-13888
▁Fort	-13889
▁Seas	-13890
▁hack	-13891
▁ills	-13892
▁leak	-13893
▁mode	-13894
▁nice	-13895
▁offs	-13896
▁vari	-13897
Russia	-13898
atched	-13899
system	-13900
▁Ahmed	-13901
▁Along	-13902
▁Anwar	-13903
▁Based	-13904
▁Faced	-13905
▁Grand	-13906
▁Guate	-13907
▁Local	-13908
▁Lower	-13909
▁affil	-13910
▁femin	-13911
▁hotel	-13912
▁shark	-13913
▁subsc	-13914
▁swath	-13915
Islamic	-13916
ialogue	-13917
managed	-13918
respect	-13919
skilled	-13920
▁30,000	-13921
▁Chechn	-13922
▁Columb	-13923
▁brains	-13924
▁couldn	-13925
▁divert	-13926
▁ironic	-13927
▁shaken	-13928
▁wholly	-13929
▁yellow	-13930
▁Khodork	-13931
▁Snowden	-13932
▁Suppose	-13933
▁amelior	-13934
▁cheaply	-13935
▁commens	-13936
▁disdain	-13937
▁dynasty	-13938
▁fearing	-13939
▁impetus	-13940
▁inflict	-13941
▁injured	-13942
▁leisure	-13943
▁polling	-13944
▁prisons	-13945
▁variant	-13946
▁wrought	-13947
organized	-13948
▁Buddhist	-13949
▁arsenals	-13950
▁athletes	-13951
▁burdened	-13952
▁deadlock	-13953
▁diarrhea	-13954
▁plastics	-13955
▁recourse	-13956
▁unveiled	-13957
generation	-13958
▁assertion	-13959
▁brilliant	-13960
▁conducive	-13961
▁confronts	-13962
▁defenders	-13963
▁deterrent	-13964
▁employing	-13965
▁hierarchy	-13966
▁murderous	-13967
▁spillover	-13968
▁textbooks	-13969
▁Employment	-13970
▁conscience	-13971
▁department	-13972
▁hypothesis	-13973
▁injections	-13974
▁publishing	-13975
▁xenophobia	-13976
▁disciplines	-13977
▁humiliating	-13978
▁legislature	-13979
▁proportions	-13980
▁Khodorkovsky	-13981
▁accumulating	-13982
▁condemnation	-13983
▁coordinating	-13984
▁guaranteeing	-13985
▁liberalizing	-13986
▁consciousness	-13987
▁externalities	-13988
TPP	-13989
You	-13990
bad	-13991
ppo	-13992
uts	-13993
▁Du	-13994
▁VI	-13995
ardo	-13996
ashv	-13997
exts	-13998
half	-13999
ikud	-14000
khaz	-14001
lide	-14002
mand	-14003
▁189	-14004
▁Bit	-14005
▁OMT	-14006
agall	-14007
istry	-14008
raded	-14009
sters	-14010
surge	-14011
▁Case	-14012
▁Hiro	-14013
▁Pric	-14014
▁Viol	-14015
▁aven	-14016
▁carn	-14017
▁drow	-14018
▁fits	-14019
▁flam	-14020
▁lock	-14021
▁tall	-14022
▁tent	-14023
▁unre	-14024
etched	-14025
iosity	-14026
orable	-14027
return	-14028
▁2004.	-14029
▁Guang	-14030
▁Peres	-14031
▁Tamil	-14032
▁autoc	-14033
▁burge	-14034
▁clock	-14035
▁dread	-14036
▁frame	-14037
▁ghost	-14038
▁hosts	-14039
▁ingen	-14040
▁prote	-14041
▁slide	-14042
▁stops	-14043
▁twist	-14044
TANFORD	-14045
healthy	-14046
iscally	-14047
licting	-14048
seeking	-14049
▁Balkan	-14050
▁Nordic	-14051
▁Taking	-14052
▁contam	-14053
▁frozen	-14054
▁intend	-14055
▁lament	-14056
▁laying	-14057
▁livest	-14058
▁medioc	-14059
▁occupy	-14060
▁racist	-14061
▁redund	-14062
▁scenes	-14063
▁strive	-14064
▁testim	-14065
▁urging	-14066
▁Academy	-14067
▁Respons	-14068
▁conform	-14069
▁curbing	-14070
▁isolate	-14071
▁lengthy	-14072
▁offense	-14073
▁smarter	-14074
continent	-14075
▁Chechnya	-14076
▁Emirates	-14077
▁Georgian	-14078
▁Xinjiang	-14079
▁charisma	-14080
▁electron	-14081
▁inadvert	-14082
▁infamous	-14083
▁interloc	-14084
▁prudence	-14085
▁punitive	-14086
▁requests	-14087
▁sanction	-14088
▁settlers	-14089
▁severity	-14090
▁sterling	-14091
▁stresses	-14092
▁tempting	-14093
▁tolerant	-14094
▁uniquely	-14095
▁Chernobyl	-14096
▁Frankfurt	-14097
▁Terrorism	-14098
▁adjusting	-14099
▁alienated	-14100
▁ambiguous	-14101
▁diagnosed	-14102
▁ethnicity	-14103
▁expecting	-14104
▁interfere	-14105
▁lobbyists	-14106
▁mentality	-14107
▁parallels	-14108
▁reckoning	-14109
▁rivalries	-14110
▁shattered	-14111
▁Innovation	-14112
▁completing	-14113
▁courageous	-14114
▁prudential	-14115
▁squandered	-14116
conservative	-14117
▁Environment	-14118
▁campaigning	-14119
▁celebration	-14120
▁circulation	-14121
▁corporation	-14122
▁devastation	-14123
▁endorsement	-14124
▁examination	-14125
▁imperialism	-14126
▁nationality	-14127
▁attributable	-14128
▁similarities	-14129
ID	-14130
Ob	-14131
fl	-14132
aza	-14133
opp	-14134
uns	-14135
vic	-14136
▁3,	-14137
▁39	-14138
▁75	-14139
▁IN	-14140
▁Id	-14141
arty	-14142
ayan	-14143
best	-14144
eous	-14145
etty	-14146
hrop	-14147
lood	-14148
pers	-14149
pert	-14150
▁95%	-14151
▁Bon	-14152
▁Cho	-14153
▁pac	-14154
▁sla	-14155
arist	-14156
plant	-14157
urban	-14158
▁$1.5	-14159
▁2018	-14160
▁9/11	-14161
▁Alas	-14162
▁Bure	-14163
▁Canc	-14164
▁Else	-14165
▁Lear	-14166
▁Pent	-14167
▁Ryan	-14168
▁arts	-14169
▁bars	-14170
▁bent	-14171
▁clim	-14172
▁cycl	-14173
▁dust	-14174
▁fest	-14175
▁hasn	-14176
▁icon	-14177
▁lows	-14178
▁misd	-14179
▁neur	-14180
equity	-14181
hecked	-14182
ifting	-14183
omeini	-14184
parent	-14185
ridden	-14186
scious	-14187
▁Armed	-14188
▁Aside	-14189
▁Himal	-14190
▁Likud	-14191
▁Osset	-14192
▁Press	-14193
▁Super	-14194
▁codes	-14195
▁crony	-14196
▁erupt	-14197
▁grapp	-14198
▁looms	-14199
▁loved	-14200
▁mines	-14201
▁taboo	-14202
▁upset	-14203
anguage	-14204
fashion	-14205
ricanes	-14206
▁Abkhaz	-14207
▁Danish	-14208
▁barbar	-14209
▁coined	-14210
▁derive	-14211
▁diseng	-14212
▁fringe	-14213
▁heroes	-14214
▁hiding	-14215
▁metrop	-14216
▁salary	-14217
▁stolen	-14218
▁unfore	-14219
▁Besides	-14220
▁Efforts	-14221
▁Experts	-14222
▁chapter	-14223
▁clarify	-14224
▁designs	-14225
▁erratic	-14226
▁farther	-14227
▁premise	-14228
▁pretend	-14229
▁selfish	-14230
▁session	-14231
▁slavery	-14232
▁starkly	-14233
▁subdued	-14234
▁suspend	-14235
▁warrant	-14236
emocratic	-14237
exporting	-14238
▁Khomeini	-14239
▁STANFORD	-14240
▁adapting	-14241
▁dropping	-14242
▁fiscally	-14243
▁goodwill	-14244
▁inconven	-14245
▁societal	-14246
▁spontane	-14247
▁virtuous	-14248
▁yourself	-14249
▁abundance	-14250
▁autocracy	-14251
▁contested	-14252
▁converted	-14253
▁encounter	-14254
▁importers	-14255
▁lawmakers	-14256
▁livestock	-14257
▁massively	-14258
▁mercantil	-14259
▁petroleum	-14260
▁therapies	-14261
▁unchecked	-14262
▁underpins	-14263
▁warranted	-14264
▁announcing	-14265
▁attainment	-14266
▁directions	-14267
▁evaluation	-14268
▁federalism	-14269
▁nationwide	-14270
▁powerhouse	-14271
▁succeeding	-14272
▁Agriculture	-14273
▁denominated	-14274
▁presupposes	-14275
▁voluntarily	-14276
▁constituents	-14277
▁devaluations	-14278
▁manipulating	-14279
▁safeguarding	-14280
▁disappearance	-14281
▁characteristic	-14282
▁contradictions	-14283
BA	-14284
ET	-14285
Os	-14286
Ste	-14287
han	-14288
two	-14289
vol	-14290
▁34	-14291
...”	-14292
aine	-14293
atur	-14294
deep	-14295
only	-14296
riel	-14297
zhou	-14298
▁$30	-14299
▁BEA	-14300
▁Fam	-14301
▁eve	-14302
▁gau	-14303
▁hel	-14304
▁lip	-14305
avals	-14306
erion	-14307
orous	-14308
pivot	-14309
useum	-14310
▁Fair	-14311
▁Fall	-14312
▁OSCE	-14313
▁Prad	-14314
▁Prof	-14315
▁amaz	-14316
▁holy	-14317
▁rebu	-14318
▁sand	-14319
▁sche	-14320
▁visa	-14321
author	-14322
inning	-14323
itters	-14324
▁Cross	-14325
▁Fidel	-14326
▁Haram	-14327
▁Insur	-14328
▁Trust	-14329
▁egreg	-14330
▁fanat	-14331
▁hawks	-14332
▁highs	-14333
▁merch	-14334
▁mouth	-14335
▁purge	-14336
▁resid	-14337
▁smoke	-14338
▁taste	-14339
▁venge	-14340
Semitic	-14341
ettered	-14342
imposed	-14343
lasting	-14344
violent	-14345
▁Aleppo	-14346
▁Bernie	-14347
▁Coming	-14348
▁Wealth	-14349
▁astron	-14350
▁babies	-14351
▁embold	-14352
▁fixing	-14353
▁incite	-14354
▁licens	-14355
▁resett	-14356
Atlantic	-14357
Steagall	-14358
▁Azerbai	-14359
▁Croatia	-14360
▁hosting	-14361
▁inquiry	-14362
▁scholar	-14363
▁Election	-14364
▁Nigerian	-14365
▁abortion	-14366
▁attached	-14367
▁dilemmas	-14368
▁distract	-14369
▁drilling	-14370
▁observer	-14371
▁outgoing	-14372
▁relating	-14373
▁subprime	-14374
▁supplier	-14375
▁Elsewhere	-14376
▁ambiguity	-14377
▁automated	-14378
▁concludes	-14379
[...]
